{"version": "1.0", "truncation": null, "padding": null, "added_tokens": [{"id": 0, "special": true, "content": "[PAD]", "single_word": false, "lstrip": false, "rstrip": false, "normalized": false}, {"id": 100, "special": true, "content": "[UNK]", "single_word": false, "lstrip": false, "rstrip": false, "normalized": false}, {"id": 101, "special": true, "content": "[CLS]", "single_word": false, "lstrip": false, "rstrip": false, "normalized": false}, {"id": 102, "special": true, "content": "[SEP]", "single_word": false, "lstrip": false, "rstrip": false, "normalized": false}, {"id": 103, "special": true, "content": "[MASK]", "single_word": false, "lstrip": false, "rstrip": false, "normalized": false}], "normalizer": {"type": "BertNormalizer", "clean_text": true, "handle_chinese_chars": true, "strip_accents": null, "lowercase": false}, "pre_tokenizer": {"type": "BertPreTokenizer"}, "post_processor": {"type": "TemplateProcessing", "single": [{"SpecialToken": {"id": "[CLS]", "type_id": 0}}, {"Sequence": {"id": "A", "type_id": 0}}, {"SpecialToken": {"id": "[SEP]", "type_id": 0}}], "pair": [{"SpecialToken": {"id": "[CLS]", "type_id": 0}}, {"Sequence": {"id": "A", "type_id": 0}}, {"SpecialToken": {"id": "[SEP]", "type_id": 0}}, {"Sequence": {"id": "B", "type_id": 1}}, {"SpecialToken": {"id": "[SEP]", "type_id": 1}}], "special_tokens": {"[SEP]": {"id": "[SEP]", "ids": [102], "tokens": ["[SEP]"]}, "[CLS]": {"id": "[CLS]", "ids": [101], "tokens": ["[CLS]"]}}}, "decoder": {"type": "WordPiece", "prefix": "##", "cleanup": true}, "model": {"unk_token": "[UNK]", "continuing_subword_prefix": "##", "max_input_chars_per_word": 100, "vocab": {"[PAD]": 0, "\u9608": 1, "\u55ef": 2, "\u6a71": 3, "\u8113": 4, "\u80f3": 5, "\u818a": 6, "\u60eb": 7, "\u7741": 8, "\u55e8": 9, "\u5499": 10, "\u80ae": 11, "\u5565": 12, "\u62e7": 13, "\u7a8d": 14, "\u7ef7": 15, "\u7096": 16, "\u75c9": 17, "\u667e": 18, "\u5443": 19, "\u5d3d": 20, "\u989e": 21, "\u7728": 22, "\u7751": 23, "\u7eab": 24, "\u5431": 25, "\u54ce": 26, "\u56b7": 27, "\u759d": 28, "\u8301": 29, "\u956f": 30, "\u5fe1": 31, "\u94f0": 32, "\u71a8": 33, "\u915d": 34, "\u8638": 35, "\u87a8": 36, "\u6512": 37, "\u53e8": 38, "\u6be1": 39, "\u79c6": 40, "\u62fd": 41, "\u8bcb": 42, "\u70ec": 43, "\u7830": 44, "\u6c79": 45, "\u9611": 46, "\u94d0": 47, "\u7f2d": 48, "\u5509": 49, "\u905b": 50, "\u86c0": 51, "\u8188": 52, "\u76f9": 53, "\u6861": 54, "\u853c": 55, "\u62f4": 56, "\u728a": 57, "\u79f8": 58, "\u61ca": 59, "\u5520": 60, "\u6dcc": 61, "\u8d58": 62, "\u576f": 63, "\u5228": 64, "\u6345": 65, "\u6dec": 66, "\u63cd": 67, "\u556a": 68, "\u9981": 69, "\u6402": 70, "\u7f24": 71, "\u7f30": 72, "\u8d61": 73, "\u6342": 74, "\u6390": 75, "\u5b6a": 76, "\u4fa5": 77, "\u8df7": 78, "[unused79]": 79, "[unused80]": 80, "[unused81]": 81, "[unused82]": 82, "[unused83]": 83, "[unused84]": 84, "[unused85]": 85, "[unused86]": 86, "[unused87]": 87, "[unused88]": 88, "[unused89]": 89, "[unused90]": 90, "[unused91]": 91, "[unused92]": 92, "\u2014": 93, "`": 94, "\u2026": 95, "\u2019": 96, "\u2018": 97, "\u201d": 98, "\u201c": 99, "[UNK]": 100, "[CLS]": 101, "[SEP]": 102, "[MASK]": 103, "<S>": 104, "<T>": 105, "!": 106, "\"": 107, "#": 108, "$": 109, "%": 110, "&": 111, "'": 112, "(": 113, ")": 114, "*": 115, "+": 116, ",": 117, "-": 118, ".": 119, "/": 120, "0": 121, "1": 122, "2": 123, "3": 124, "4": 125, "5": 126, "6": 127, "7": 128, "8": 129, "9": 130, ":": 131, ";": 132, "<": 133, "=": 134, ">": 135, "?": 136, "@": 137, "A": 138, "B": 139, "C": 140, "D": 141, "E": 142, "F": 143, "G": 144, "H": 145, "I": 146, "J": 147, "K": 148, "L": 149, "M": 150, "N": 151, "O": 152, "P": 153, "Q": 154, "R": 155, "S": 156, "T": 157, "U": 158, "V": 159, "W": 160, "X": 161, "Y": 162, "Z": 163, "[": 164, "\\": 165, "]": 166, "^": 167, "_": 168, "a": 169, "b": 170, "c": 171, "d": 172, "e": 173, "f": 174, "g": 175, "h": 176, "i": 177, "j": 178, "k": 179, "l": 180, "m": 181, "n": 182, "o": 183, "p": 184, "q": 185, "r": 186, "s": 187, "t": 188, "u": 189, "v": 190, "w": 191, "x": 192, "y": 193, "z": 194, "{": 195, "|": 196, "}": 197, "~": 198, "\u00a1": 199, "\u00a2": 200, "\u00a3": 201, "\u00a5": 202, "\u00a6": 203, "\u00a7": 204, "\u00a8": 205, "\u00a9": 206, "\u00aa": 207, "\u00ab": 208, "\u00ac": 209, "\u00ae": 210, "\u00b0": 211, "\u00b1": 212, "\u00b2": 213, "\u00b3": 214, "\u00b5": 215, "\u00b6": 216, "\u00b7": 217, "\u00b9": 218, "\u00ba": 219, "\u00bb": 220, "\u00bc": 221, "\u00bd": 222, "\u00be": 223, "\u00bf": 224, "\u00c0": 225, "\u00c1": 226, "\u00c2": 227, "\u00c3": 228, "\u00c4": 229, "\u00c5": 230, "\u00c6": 231, "\u00c7": 232, "\u00c8": 233, "\u00c9": 234, "\u00ca": 235, "\u00cb": 236, "\u00cc": 237, "\u00cd": 238, "\u00ce": 239, "\u00d0": 240, "\u00d1": 241, "\u00d2": 242, "\u00d3": 243, "\u00d4": 244, "\u00d5": 245, "\u00d6": 246, "\u00d7": 247, "\u00d8": 248, "\u00da": 249, "\u00dc": 250, "\u00dd": 251, "\u00de": 252, "\u00df": 253, "\u00e0": 254, "\u00e1": 255, "\u00e2": 256, "\u00e3": 257, "\u00e4": 258, "\u00e5": 259, "\u00e6": 260, "\u00e7": 261, "\u00e8": 262, "\u00e9": 263, "\u00ea": 264, "\u00eb": 265, "\u00ec": 266, "\u00ed": 267, "\u00ee": 268, "\u00ef": 269, "\u00f0": 270, "\u00f1": 271, "\u00f2": 272, "\u00f3": 273, "\u00f4": 274, "\u00f5": 275, "\u00f6": 276, "\u00f7": 277, "\u00f8": 278, "\u00f9": 279, "\u00fa": 280, "\u00fb": 281, "\u00fc": 282, "\u00fd": 283, "\u00fe": 284, "\u00ff": 285, "\u0100": 286, "\u0101": 287, "\u0102": 288, "\u0103": 289, "\u0104": 290, "\u0105": 291, "\u0106": 292, "\u0107": 293, "\u010c": 294, "\u010d": 295, "\u010e": 296, "\u010f": 297, "\u0110": 298, "\u0111": 299, "\u0112": 300, "\u0113": 301, "\u0114": 302, "\u0115": 303, "\u0116": 304, "\u0117": 305, "\u0119": 306, "\u011b": 307, "\u011e": 308, "\u011f": 309, "\u0121": 310, "\u0122": 311, "\u0123": 312, "\u0126": 313, "\u0127": 314, "\u0129": 315, "\u012a": 316, "\u012b": 317, "\u012e": 318, "\u012f": 319, "\u0130": 320, "\u0131": 321, "\u0136": 322, "\u0137": 323, "\u013a": 324, "\u013b": 325, "\u013c": 326, "\u013d": 327, "\u013e": 328, "\u0141": 329, "\u0142": 330, "\u0144": 331, "\u0145": 332, "\u0146": 333, "\u0148": 334, "\u0149": 335, "\u014b": 336, "\u014c": 337, "\u014d": 338, "\u014f": 339, "\u0150": 340, "\u0151": 341, "\u0152": 342, "\u0153": 343, "\u0155": 344, "\u0158": 345, "\u0159": 346, "\u015a": 347, "\u015b": 348, "\u015e": 349, "\u015f": 350, "\u0160": 351, "\u0161": 352, "\u0162": 353, "\u0163": 354, "\u0164": 355, "\u0165": 356, "\u0169": 357, "\u016a": 358, "\u016b": 359, "\u016d": 360, "\u016f": 361, "\u0170": 362, "\u0171": 363, "\u0173": 364, "\u0175": 365, "\u0177": 366, "\u0179": 367, "\u017a": 368, "\u017b": 369, "\u017c": 370, "\u017d": 371, "\u017e": 372, "\u018f": 373, "\u0192": 374, "\u01a1": 375, "\u01af": 376, "\u01b0": 377, "\u01ce": 378, "\u01d0": 379, "\u01d4": 380, "\u01eb": 381, "\u01f9": 382, "\u0218": 383, "\u0219": 384, "\u021a": 385, "\u021b": 386, "\u0250": 387, "\u0251": 388, "\u0254": 389, "\u0255": 390, "\u0259": 391, "\u025b": 392, "\u0261": 393, "\u0263": 394, "\u0268": 395, "\u026a": 396, "\u0272": 397, "\u027e": 398, "\u0281": 399, "\u0283": 400, "\u028a": 401, "\u028e": 402, "\u0292": 403, "\u0294": 404, "\u0299": 405, "\u02b0": 406, "\u02b2": 407, "\u02b3": 408, "\u02b7": 409, "\u02b8": 410, "\u02bb": 411, "\u02bc": 412, "\u02be": 413, "\u02bf": 414, "\u02c8": 415, "\u02d0": 416, "\u02e1": 417, "\u02e2": 418, "\u0300": 419, "\u0301": 420, "\u0303": 421, "\u0304": 422, "\u030d": 423, "\u0325": 424, "\u0327": 425, "\u0332": 426, "\u0361": 427, "\u0384": 428, "\u0386": 429, "\u0388": 430, "\u0389": 431, "\u038a": 432, "\u038c": 433, "\u038e": 434, "\u038f": 435, "\u0390": 436, "\u0391": 437, "\u0392": 438, "\u0393": 439, "\u0394": 440, "\u0395": 441, "\u0396": 442, "\u0397": 443, "\u0398": 444, "\u0399": 445, "\u039a": 446, "\u039b": 447, "\u039c": 448, "\u039d": 449, "\u039e": 450, "\u039f": 451, "\u03a0": 452, "\u03a1": 453, "\u03a3": 454, "\u03a4": 455, "\u03a5": 456, "\u03a6": 457, "\u03a7": 458, "\u03a8": 459, "\u03a9": 460, "\u03ac": 461, "\u03ad": 462, "\u03ae": 463, "\u03af": 464, "\u03b1": 465, "\u03b2": 466, "\u03b3": 467, "\u03b4": 468, "\u03b5": 469, "\u03b6": 470, "\u03b7": 471, "\u03b8": 472, "\u03b9": 473, "\u03ba": 474, "\u03bb": 475, "\u03bc": 476, "\u03bd": 477, "\u03be": 478, "\u03bf": 479, "\u03c0": 480, "\u03c1": 481, "\u03c2": 482, "\u03c3": 483, "\u03c4": 484, "\u03c5": 485, "\u03c6": 486, "\u03c7": 487, "\u03c8": 488, "\u03c9": 489, "\u03ca": 490, "\u03cb": 491, "\u03cc": 492, "\u03cd": 493, "\u03ce": 494, "\u0401": 495, "\u0402": 496, "\u0403": 497, "\u0404": 498, "\u0405": 499, "\u0406": 500, "\u0407": 501, "\u0408": 502, "\u0409": 503, "\u040a": 504, "\u040b": 505, "\u040c": 506, "\u040e": 507, "\u040f": 508, "\u0410": 509, "\u0411": 510, "\u0412": 511, "\u0413": 512, "\u0414": 513, "\u0415": 514, "\u0416": 515, "\u0417": 516, "\u0418": 517, "\u0419": 518, "\u041a": 519, "\u041b": 520, "\u041c": 521, "\u041d": 522, "\u041e": 523, "\u041f": 524, "\u0420": 525, "\u0421": 526, "\u0422": 527, "\u0423": 528, "\u0424": 529, "\u0425": 530, "\u0426": 531, "\u0427": 532, "\u0428": 533, "\u0429": 534, "\u042a": 535, "\u042b": 536, "\u042c": 537, "\u042d": 538, "\u042e": 539, "\u042f": 540, "\u0430": 541, "\u0431": 542, "\u0432": 543, "\u0433": 544, "\u0434": 545, "\u0435": 546, "\u0436": 547, "\u0437": 548, "\u0438": 549, "\u0439": 550, "\u043a": 551, "\u043b": 552, "\u043c": 553, "\u043d": 554, "\u043e": 555, "\u043f": 556, "\u0440": 557, "\u0441": 558, "\u0442": 559, "\u0443": 560, "\u0444": 561, "\u0445": 562, "\u0446": 563, "\u0447": 564, "\u0448": 565, "\u0449": 566, "\u044a": 567, "\u044b": 568, "\u044c": 569, "\u044d": 570, "\u044e": 571, "\u044f": 572, "\u0450": 573, "\u0451": 574, "\u0452": 575, "\u0453": 576, "\u0454": 577, "\u0455": 578, "\u0456": 579, "\u0457": 580, "\u0458": 581, "\u0459": 582, "\u045a": 583, "\u045b": 584, "\u045c": 585, "\u045d": 586, "\u045e": 587, "\u045f": 588, "\u0463": 589, "\u0490": 590, "\u0491": 591, "\u0492": 592, "\u0493": 593, "\u0496": 594, "\u0497": 595, "\u0498": 596, "\u0499": 597, "\u049a": 598, "\u049b": 599, "\u04a0": 600, "\u04a1": 601, "\u04a3": 602, "\u04ab": 603, "\u04ae": 604, "\u04af": 605, "\u04b0": 606, "\u04b1": 607, "\u04b2": 608, "\u04b3": 609, "\u04b6": 610, "\u04b7": 611, "\u04ba": 612, "\u04bb": 613, "\u04c0": 614, "\u04d1": 615, "\u04d7": 616, "\u04d8": 617, "\u04d9": 618, "\u04e3": 619, "\u04e8": 620, "\u04e9": 621, "\u04ee": 622, "\u04ef": 623, "\u04f3": 624, "\u0531": 625, "\u0532": 626, "\u0533": 627, "\u0534": 628, "\u0535": 629, "\u0536": 630, "\u0537": 631, "\u0538": 632, "\u0539": 633, "\u053a": 634, "\u053b": 635, "\u053c": 636, "\u053d": 637, "\u053e": 638, "\u053f": 639, "\u0540": 640, "\u0541": 641, "\u0542": 642, "\u0543": 643, "\u0544": 644, "\u0545": 645, "\u0546": 646, "\u0547": 647, "\u0548": 648, "\u0549": 649, "\u054a": 650, "\u054b": 651, "\u054c": 652, "\u054d": 653, "\u054e": 654, "\u054f": 655, "\u0550": 656, "\u0551": 657, "\u0552": 658, "\u0553": 659, "\u0554": 660, "\u0555": 661, "\u0556": 662, "\u055a": 663, "\u055b": 664, "\u055c": 665, "\u055d": 666, "\u055e": 667, "\u0561": 668, "\u0562": 669, "\u0563": 670, "\u0564": 671, "\u0565": 672, "\u0566": 673, "\u0567": 674, "\u0568": 675, "\u0569": 676, "\u056a": 677, "\u056b": 678, "\u056c": 679, "\u056d": 680, "\u056e": 681, "\u056f": 682, "\u0570": 683, "\u0571": 684, "\u0572": 685, "\u0573": 686, "\u0574": 687, "\u0575": 688, "\u0576": 689, "\u0577": 690, "\u0578": 691, "\u0579": 692, "\u057a": 693, "\u057b": 694, "\u057c": 695, "\u057d": 696, "\u057e": 697, "\u057f": 698, "\u0580": 699, "\u0581": 700, "\u0582": 701, "\u0583": 702, "\u0584": 703, "\u0585": 704, "\u0586": 705, "\u0587": 706, "\u0589": 707, "\u058a": 708, "\u05b0": 709, "\u05b1": 710, "\u05b2": 711, "\u05b4": 712, "\u05b5": 713, "\u05b6": 714, "\u05b7": 715, "\u05b8": 716, "\u05b9": 717, "\u05bc": 718, "\u05be": 719, "\u05c1": 720, "\u05c2": 721, "\u05c3": 722, "\u05d0": 723, "\u05d1": 724, "\u05d2": 725, "\u05d3": 726, "\u05d4": 727, "\u05d5": 728, "\u05d6": 729, "\u05d7": 730, "\u05d8": 731, "\u05d9": 732, "\u05da": 733, "\u05db": 734, "\u05dc": 735, "\u05dd": 736, "\u05de": 737, "\u05df": 738, "\u05e0": 739, "\u05e1": 740, "\u05e2": 741, "\u05e3": 742, "\u05e4": 743, "\u05e5": 744, "\u05e6": 745, "\u05e7": 746, "\u05e8": 747, "\u05e9": 748, "\u05ea": 749, "\u05f3": 750, "\u05f4": 751, "\u060c": 752, "\u060d": 753, "\u0612": 754, "\u061b": 755, "\u061f": 756, "\u0621": 757, "\u0622": 758, "\u0623": 759, "\u0624": 760, "\u0625": 761, "\u0626": 762, "\u0627": 763, "\u0628": 764, "\u0629": 765, "\u062a": 766, "\u062b": 767, "\u062c": 768, "\u062d": 769, "\u062e": 770, "\u062f": 771, "\u0630": 772, "\u0631": 773, "\u0632": 774, "\u0633": 775, "\u0634": 776, "\u0635": 777, "\u0636": 778, "\u0637": 779, "\u0638": 780, "\u0639": 781, "\u063a": 782, "\u0640": 783, "\u0641": 784, "\u0642": 785, "\u0643": 786, "\u0644": 787, "\u0645": 788, "\u0646": 789, "\u0647": 790, "\u0648": 791, "\u0649": 792, "\u064a": 793, "\u064b": 794, "\u064c": 795, "\u064d": 796, "\u064e": 797, "\u064f": 798, "\u0650": 799, "\u0651": 800, "\u0652": 801, "\u0654": 802, "\u065b": 803, "\u0660": 804, "\u0661": 805, "\u0662": 806, "\u0663": 807, "\u0664": 808, "\u0665": 809, "\u0669": 810, "\u066a": 811, "\u066b": 812, "\u066c": 813, "\u066d": 814, "\u0670": 815, "\u0679": 816, "\u067e": 817, "\u0686": 818, "\u0688": 819, "\u0691": 820, "\u0698": 821, "\u06a4": 822, "\u06a9": 823, "\u06ad": 824, "\u06af": 825, "\u06ba": 826, "\u06be": 827, "\u06c0": 828, "\u06c1": 829, "\u06c2": 830, "\u06c3": 831, "\u06c6": 832, "\u06c7": 833, "\u06cc": 834, "\u06d2": 835, "\u06d3": 836, "\u06d4": 837, "\u06f0": 838, "\u06f1": 839, "\u06f2": 840, "\u06f3": 841, "\u06f4": 842, "\u06f5": 843, "\u06f6": 844, "\u06f7": 845, "\u06f8": 846, "\u06f9": 847, "\u0901": 848, "\u0902": 849, "\u0903": 850, "\u0905": 851, "\u0906": 852, "\u0907": 853, "\u0908": 854, "\u0909": 855, "\u090a": 856, "\u090b": 857, "\u090d": 858, "\u090e": 859, "\u090f": 860, "\u0910": 861, "\u0911": 862, "\u0913": 863, "\u0914": 864, "\u0915": 865, "\u0916": 866, "\u0917": 867, "\u0918": 868, "\u0919": 869, "\u091a": 870, "\u091b": 871, "\u091c": 872, "\u091d": 873, "\u091e": 874, "\u091f": 875, "\u0920": 876, "\u0921": 877, "\u0922": 878, "\u0923": 879, "\u0924": 880, "\u0925": 881, "\u0926": 882, "\u0927": 883, "\u0928": 884, "\u092a": 885, "\u092b": 886, "\u092c": 887, "\u092d": 888, "\u092e": 889, "\u092f": 890, "\u0930": 891, "\u0931": 892, "\u0932": 893, "\u0933": 894, "\u0935": 895, "\u0936": 896, "\u0937": 897, "\u0938": 898, "\u0939": 899, "\u093c": 900, "\u093d": 901, "\u093e": 902, "\u093f": 903, "\u0940": 904, "\u0941": 905, "\u0942": 906, "\u0943": 907, "\u0944": 908, "\u0945": 909, "\u0946": 910, "\u0947": 911, "\u0948": 912, "\u0949": 913, "\u094b": 914, "\u094c": 915, "\u094d": 916, "\u0950": 917, "\u0953": 918, "\u0960": 919, "\u0964": 920, "\u0965": 921, "\u0966": 922, "\u0967": 923, "\u0968": 924, "\u0969": 925, "\u096a": 926, "\u096b": 927, "\u096c": 928, "\u096d": 929, "\u096e": 930, "\u096f": 931, "\u0970": 932, "\u0972": 933, "\u0981": 934, "\u0982": 935, "\u0983": 936, "\u0985": 937, "\u0986": 938, "\u0987": 939, "\u0988": 940, "\u0989": 941, "\u098a": 942, "\u098b": 943, "\u098f": 944, "\u0990": 945, "\u0993": 946, "\u0994": 947, "\u0995": 948, "\u0996": 949, "\u0997": 950, "\u0998": 951, "\u0999": 952, "\u099a": 953, "\u099b": 954, "\u099c": 955, "\u099d": 956, "\u099e": 957, "\u099f": 958, "\u09a0": 959, "\u09a1": 960, "\u09a2": 961, "\u09a3": 962, "\u09a4": 963, "\u09a5": 964, "\u09a6": 965, "\u09a7": 966, "\u09a8": 967, "\u09aa": 968, "\u09ab": 969, "\u09ac": 970, "\u09ad": 971, "\u09ae": 972, "\u09af": 973, "\u09b0": 974, "\u09b2": 975, "\u09b6": 976, "\u09b7": 977, "\u09b8": 978, "\u09b9": 979, "\u09bc": 980, "\u09be": 981, "\u09bf": 982, "\u09c0": 983, "\u09c1": 984, "\u09c2": 985, "\u09c3": 986, "\u09c7": 987, "\u09c8": 988, "\u09cb": 989, "\u09cc": 990, "\u09cd": 991, "\u09ce": 992, "\u09e6": 993, "\u09e7": 994, "\u09e8": 995, "\u09e9": 996, "\u09ea": 997, "\u09eb": 998, "\u09ec": 999, "\u09ed": 1000, "\u09ee": 1001, "\u09ef": 1002, "\u09f0": 1003, "\u09f1": 1004, "\u09f7": 1005, "\u0a02": 1006, "\u0a05": 1007, "\u0a06": 1008, "\u0a07": 1009, "\u0a08": 1010, "\u0a09": 1011, "\u0a0a": 1012, "\u0a0f": 1013, "\u0a10": 1014, "\u0a13": 1015, "\u0a14": 1016, "\u0a15": 1017, "\u0a16": 1018, "\u0a17": 1019, "\u0a18": 1020, "\u0a1a": 1021, "\u0a1b": 1022, "\u0a1c": 1023, "\u0a1d": 1024, "\u0a1f": 1025, "\u0a20": 1026, "\u0a21": 1027, "\u0a22": 1028, "\u0a23": 1029, "\u0a24": 1030, "\u0a25": 1031, "\u0a26": 1032, "\u0a27": 1033, "\u0a28": 1034, "\u0a2a": 1035, "\u0a2b": 1036, "\u0a2c": 1037, "\u0a2d": 1038, "\u0a2e": 1039, "\u0a2f": 1040, "\u0a30": 1041, "\u0a32": 1042, "\u0a35": 1043, "\u0a38": 1044, "\u0a39": 1045, "\u0a3c": 1046, "\u0a3e": 1047, "\u0a3f": 1048, "\u0a40": 1049, "\u0a41": 1050, "\u0a42": 1051, "\u0a47": 1052, "\u0a48": 1053, "\u0a4b": 1054, "\u0a4c": 1055, "\u0a4d": 1056, "\u0a5c": 1057, "\u0a66": 1058, "\u0a67": 1059, "\u0a68": 1060, "\u0a69": 1061, "\u0a6a": 1062, "\u0a6b": 1063, "\u0a70": 1064, "\u0a71": 1065, "\u0a72": 1066, "\u0a73": 1067, "\u0a82": 1068, "\u0a83": 1069, "\u0a85": 1070, "\u0a86": 1071, "\u0a87": 1072, "\u0a88": 1073, "\u0a89": 1074, "\u0a8a": 1075, "\u0a8b": 1076, "\u0a8d": 1077, "\u0a8f": 1078, "\u0a90": 1079, "\u0a91": 1080, "\u0a93": 1081, "\u0a94": 1082, "\u0a95": 1083, "\u0a96": 1084, "\u0a97": 1085, "\u0a98": 1086, "\u0a9a": 1087, "\u0a9b": 1088, "\u0a9c": 1089, "\u0a9d": 1090, "\u0a9e": 1091, "\u0a9f": 1092, "\u0aa0": 1093, "\u0aa1": 1094, "\u0aa2": 1095, "\u0aa3": 1096, "\u0aa4": 1097, "\u0aa5": 1098, "\u0aa6": 1099, "\u0aa7": 1100, "\u0aa8": 1101, "\u0aaa": 1102, "\u0aab": 1103, "\u0aac": 1104, "\u0aad": 1105, "\u0aae": 1106, "\u0aaf": 1107, "\u0ab0": 1108, "\u0ab2": 1109, "\u0ab3": 1110, "\u0ab5": 1111, "\u0ab6": 1112, "\u0ab7": 1113, "\u0ab8": 1114, "\u0ab9": 1115, "\u0abe": 1116, "\u0abf": 1117, "\u0ac0": 1118, "\u0ac1": 1119, "\u0ac2": 1120, "\u0ac3": 1121, "\u0ac5": 1122, "\u0ac7": 1123, "\u0ac8": 1124, "\u0ac9": 1125, "\u0acb": 1126, "\u0acc": 1127, "\u0acd": 1128, "\u0ae6": 1129, "\u0ae7": 1130, "\u0ae8": 1131, "\u0ae9": 1132, "\u0aea": 1133, "\u0aeb": 1134, "\u0aec": 1135, "\u0aed": 1136, "\u0aee": 1137, "\u0aef": 1138, "\u0b83": 1139, "\u0b85": 1140, "\u0b86": 1141, "\u0b87": 1142, "\u0b88": 1143, "\u0b89": 1144, "\u0b8a": 1145, "\u0b8e": 1146, "\u0b8f": 1147, "\u0b90": 1148, "\u0b92": 1149, "\u0b93": 1150, "\u0b94": 1151, "\u0b95": 1152, "\u0b99": 1153, "\u0b9a": 1154, "\u0b9c": 1155, "\u0b9e": 1156, "\u0b9f": 1157, "\u0ba3": 1158, "\u0ba4": 1159, "\u0ba8": 1160, "\u0ba9": 1161, "\u0baa": 1162, "\u0bae": 1163, "\u0baf": 1164, "\u0bb0": 1165, "\u0bb1": 1166, "\u0bb2": 1167, "\u0bb3": 1168, "\u0bb4": 1169, "\u0bb5": 1170, "\u0bb7": 1171, "\u0bb8": 1172, "\u0bb9": 1173, "\u0bbe": 1174, "\u0bbf": 1175, "\u0bc0": 1176, "\u0bc1": 1177, "\u0bc2": 1178, "\u0bc6": 1179, "\u0bc7": 1180, "\u0bc8": 1181, "\u0bca": 1182, "\u0bcb": 1183, "\u0bcc": 1184, "\u0bcd": 1185, "\u0c02": 1186, "\u0c03": 1187, "\u0c05": 1188, "\u0c06": 1189, "\u0c07": 1190, "\u0c08": 1191, "\u0c09": 1192, "\u0c0a": 1193, "\u0c0b": 1194, "\u0c0e": 1195, "\u0c0f": 1196, "\u0c10": 1197, "\u0c12": 1198, "\u0c13": 1199, "\u0c14": 1200, "\u0c15": 1201, "\u0c16": 1202, "\u0c17": 1203, "\u0c18": 1204, "\u0c1a": 1205, "\u0c1b": 1206, "\u0c1c": 1207, "\u0c1d": 1208, "\u0c1e": 1209, "\u0c1f": 1210, "\u0c20": 1211, "\u0c21": 1212, "\u0c22": 1213, "\u0c23": 1214, "\u0c24": 1215, "\u0c25": 1216, "\u0c26": 1217, "\u0c27": 1218, "\u0c28": 1219, "\u0c2a": 1220, "\u0c2b": 1221, "\u0c2c": 1222, "\u0c2d": 1223, "\u0c2e": 1224, "\u0c2f": 1225, "\u0c30": 1226, "\u0c31": 1227, "\u0c32": 1228, "\u0c33": 1229, "\u0c35": 1230, "\u0c36": 1231, "\u0c37": 1232, "\u0c38": 1233, "\u0c39": 1234, "\u0c3e": 1235, "\u0c3f": 1236, "\u0c40": 1237, "\u0c41": 1238, "\u0c42": 1239, "\u0c43": 1240, "\u0c46": 1241, "\u0c47": 1242, "\u0c48": 1243, "\u0c4a": 1244, "\u0c4b": 1245, "\u0c4c": 1246, "\u0c4d": 1247, "\u0c82": 1248, "\u0c83": 1249, "\u0c85": 1250, "\u0c86": 1251, "\u0c87": 1252, "\u0c88": 1253, "\u0c89": 1254, "\u0c8a": 1255, "\u0c8b": 1256, "\u0c8e": 1257, "\u0c8f": 1258, "\u0c90": 1259, "\u0c92": 1260, "\u0c93": 1261, "\u0c94": 1262, "\u0c95": 1263, "\u0c96": 1264, "\u0c97": 1265, "\u0c98": 1266, "\u0c9a": 1267, "\u0c9b": 1268, "\u0c9c": 1269, "\u0c9d": 1270, "\u0c9e": 1271, "\u0c9f": 1272, "\u0ca0": 1273, "\u0ca1": 1274, "\u0ca2": 1275, "\u0ca3": 1276, "\u0ca4": 1277, "\u0ca5": 1278, "\u0ca6": 1279, "\u0ca7": 1280, "\u0ca8": 1281, "\u0caa": 1282, "\u0cab": 1283, "\u0cac": 1284, "\u0cad": 1285, "\u0cae": 1286, "\u0caf": 1287, "\u0cb0": 1288, "\u0cb2": 1289, "\u0cb3": 1290, "\u0cb5": 1291, "\u0cb6": 1292, "\u0cb7": 1293, "\u0cb8": 1294, "\u0cb9": 1295, "\u0cbe": 1296, "\u0cbf": 1297, "\u0cc0": 1298, "\u0cc1": 1299, "\u0cc2": 1300, "\u0cc3": 1301, "\u0cc6": 1302, "\u0cc7": 1303, "\u0cc8": 1304, "\u0cca": 1305, "\u0ccb": 1306, "\u0ccc": 1307, "\u0ccd": 1308, "\u0ce6": 1309, "\u0ce7": 1310, "\u0ce8": 1311, "\u0ce9": 1312, "\u0cea": 1313, "\u0ceb": 1314, "\u0cec": 1315, "\u0ced": 1316, "\u0cee": 1317, "\u0cef": 1318, "\u0d02": 1319, "\u0d03": 1320, "\u0d05": 1321, "\u0d06": 1322, "\u0d07": 1323, "\u0d08": 1324, "\u0d09": 1325, "\u0d0a": 1326, "\u0d0b": 1327, "\u0d0e": 1328, "\u0d0f": 1329, "\u0d10": 1330, "\u0d12": 1331, "\u0d13": 1332, "\u0d14": 1333, "\u0d15": 1334, "\u0d16": 1335, "\u0d17": 1336, "\u0d18": 1337, "\u0d19": 1338, "\u0d1a": 1339, "\u0d1b": 1340, "\u0d1c": 1341, "\u0d1e": 1342, "\u0d1f": 1343, "\u0d20": 1344, "\u0d21": 1345, "\u0d22": 1346, "\u0d23": 1347, "\u0d24": 1348, "\u0d25": 1349, "\u0d26": 1350, "\u0d27": 1351, "\u0d28": 1352, "\u0d2a": 1353, "\u0d2b": 1354, "\u0d2c": 1355, "\u0d2d": 1356, "\u0d2e": 1357, "\u0d2f": 1358, "\u0d30": 1359, "\u0d31": 1360, "\u0d32": 1361, "\u0d33": 1362, "\u0d34": 1363, "\u0d35": 1364, "\u0d36": 1365, "\u0d37": 1366, "\u0d38": 1367, "\u0d39": 1368, "\u0d3e": 1369, "\u0d3f": 1370, "\u0d40": 1371, "\u0d41": 1372, "\u0d42": 1373, "\u0d43": 1374, "\u0d46": 1375, "\u0d47": 1376, "\u0d48": 1377, "\u0d4a": 1378, "\u0d4b": 1379, "\u0d4c": 1380, "\u0d4d": 1381, "\u0d57": 1382, "\u0d67": 1383, "\u0d7a": 1384, "\u0d7b": 1385, "\u0d7c": 1386, "\u0d7d": 1387, "\u0d7e": 1388, "\u0d9a": 1389, "\u0dba": 1390, "\u0dbb": 1391, "\u0dbd": 1392, "\u0dca": 1393, "\u0dcf": 1394, "\u0e01": 1395, "\u0e02": 1396, "\u0e04": 1397, "\u0e06": 1398, "\u0e07": 1399, "\u0e08": 1400, "\u0e09": 1401, "\u0e0a": 1402, "\u0e0b": 1403, "\u0e0c": 1404, "\u0e0d": 1405, "\u0e0e": 1406, "\u0e0f": 1407, "\u0e10": 1408, "\u0e11": 1409, "\u0e12": 1410, "\u0e13": 1411, "\u0e14": 1412, "\u0e15": 1413, "\u0e16": 1414, "\u0e17": 1415, "\u0e18": 1416, "\u0e19": 1417, "\u0e1a": 1418, "\u0e1b": 1419, "\u0e1c": 1420, "\u0e1d": 1421, "\u0e1e": 1422, "\u0e1f": 1423, "\u0e20": 1424, "\u0e21": 1425, "\u0e22": 1426, "\u0e23": 1427, "\u0e24": 1428, "\u0e25": 1429, "\u0e27": 1430, "\u0e28": 1431, "\u0e29": 1432, "\u0e2a": 1433, "\u0e2b": 1434, "\u0e2c": 1435, "\u0e2d": 1436, "\u0e2e": 1437, "\u0e2f": 1438, "\u0e30": 1439, "\u0e31": 1440, "\u0e32": 1441, "\u0e33": 1442, "\u0e34": 1443, "\u0e35": 1444, "\u0e36": 1445, "\u0e37": 1446, "\u0e38": 1447, "\u0e39": 1448, "\u0e3a": 1449, "\u0e40": 1450, "\u0e41": 1451, "\u0e42": 1452, "\u0e43": 1453, "\u0e44": 1454, "\u0e46": 1455, "\u0e47": 1456, "\u0e48": 1457, "\u0e49": 1458, "\u0e4a": 1459, "\u0e4b": 1460, "\u0e4c": 1461, "\u0e50": 1462, "\u0e51": 1463, "\u0e52": 1464, "\u0e53": 1465, "\u0e54": 1466, "\u0e55": 1467, "\u0e56": 1468, "\u0e57": 1469, "\u0e58": 1470, "\u0e59": 1471, "\u0f0b": 1472, "\u0f0d": 1473, "\u0f42": 1474, "\u0f44": 1475, "\u0f46": 1476, "\u0f51": 1477, "\u0f53": 1478, "\u0f54": 1479, "\u0f56": 1480, "\u0f58": 1481, "\u0f5a": 1482, "\u0f62": 1483, "\u0f63": 1484, "\u0f66": 1485, "\u0f72": 1486, "\u0f7a": 1487, "\u0f7c": 1488, "\u0f92": 1489, "\u0fab": 1490, "\u0fb1": 1491, "\u1000": 1492, "\u1001": 1493, "\u1002": 1494, "\u1003": 1495, "\u1004": 1496, "\u1005": 1497, "\u1006": 1498, "\u1007": 1499, "\u1008": 1500, "\u1009": 1501, "\u100a": 1502, "\u100b": 1503, "\u100c": 1504, "\u100d": 1505, "\u100f": 1506, "\u1010": 1507, "\u1011": 1508, "\u1012": 1509, "\u1013": 1510, "\u1014": 1511, "\u1015": 1512, "\u1016": 1513, "\u1017": 1514, "\u1018": 1515, "\u1019": 1516, "\u101a": 1517, "\u101b": 1518, "\u101c": 1519, "\u101d": 1520, "\u101e": 1521, "\u101f": 1522, "\u1020": 1523, "\u1021": 1524, "\u1024": 1525, "\u1025": 1526, "\u1026": 1527, "\u1027": 1528, "\u1029": 1529, "\u102b": 1530, "\u102c": 1531, "\u102d": 1532, "\u102e": 1533, "\u102f": 1534, "\u1030": 1535, "\u1031": 1536, "\u1032": 1537, "\u1036": 1538, "\u1037": 1539, "\u1038": 1540, "\u1039": 1541, "\u103a": 1542, "\u103b": 1543, "\u103c": 1544, "\u103d": 1545, "\u103e": 1546, "\u103f": 1547, "\u1040": 1548, "\u1041": 1549, "\u1042": 1550, "\u1043": 1551, "\u1044": 1552, "\u1045": 1553, "\u1046": 1554, "\u1047": 1555, "\u1048": 1556, "\u1049": 1557, "\u104a": 1558, "\u104b": 1559, "\u104c": 1560, "\u104d": 1561, "\u104e": 1562, "\u104f": 1563, "\u10d0": 1564, "\u10d1": 1565, "\u10d2": 1566, "\u10d3": 1567, "\u10d4": 1568, "\u10d5": 1569, "\u10d6": 1570, "\u10d7": 1571, "\u10d8": 1572, "\u10d9": 1573, "\u10da": 1574, "\u10db": 1575, "\u10dc": 1576, "\u10dd": 1577, "\u10de": 1578, "\u10df": 1579, "\u10e0": 1580, "\u10e1": 1581, "\u10e2": 1582, "\u10e3": 1583, "\u10e4": 1584, "\u10e5": 1585, "\u10e6": 1586, "\u10e7": 1587, "\u10e8": 1588, "\u10e9": 1589, "\u10ea": 1590, "\u10eb": 1591, "\u10ec": 1592, "\u10ed": 1593, "\u10ee": 1594, "\u10ef": 1595, "\u10f0": 1596, "\u10f2": 1597, "\u1822": 1598, "\u1828": 1599, "\u1d2c": 1600, "\u1d2e": 1601, "\u1d30": 1602, "\u1d35": 1603, "\u1d3e": 1604, "\u1d40": 1605, "\u1d43": 1606, "\u1d47": 1607, "\u1d48": 1608, "\u1d49": 1609, "\u1d4d": 1610, "\u1d4f": 1611, "\u1d50": 1612, "\u1d52": 1613, "\u1d56": 1614, "\u1d57": 1615, "\u1d58": 1616, "\u1d5b": 1617, "\u1d62": 1618, "\u1d63": 1619, "\u1d64": 1620, "\u1d9c": 1621, "\u1da0": 1622, "\u1e0d": 1623, "\u1e0f": 1624, "\u1e10": 1625, "\u1e11": 1626, "\u1e24": 1627, "\u1e25": 1628, "\u1e28": 1629, "\u1e29": 1630, "\u1e2a": 1631, "\u1e2b": 1632, "\u1e37": 1633, "\u1e43": 1634, "\u1e47": 1635, "\u1e5b": 1636, "\u1e5f": 1637, "\u1e62": 1638, "\u1e63": 1639, "\u1e6c": 1640, "\u1e6d": 1641, "\u1e6f": 1642, "\u1e95": 1643, "\u1ea1": 1644, "\u1ea2": 1645, "\u1ea3": 1646, "\u1ea4": 1647, "\u1ea5": 1648, "\u1ea7": 1649, "\u1ea8": 1650, "\u1ea9": 1651, "\u1eab": 1652, "\u1ead": 1653, "\u1eaf": 1654, "\u1eb1": 1655, "\u1eb3": 1656, "\u1eb5": 1657, "\u1eb7": 1658, "\u1eb8": 1659, "\u1eb9": 1660, "\u1ebb": 1661, "\u1ebd": 1662, "\u1ebf": 1663, "\u1ec1": 1664, "\u1ec3": 1665, "\u1ec5": 1666, "\u1ec7": 1667, "\u1ec9": 1668, "\u1ecb": 1669, "\u1ecc": 1670, "\u1ecd": 1671, "\u1ecf": 1672, "\u1ed0": 1673, "\u1ed1": 1674, "\u1ed3": 1675, "\u1ed5": 1676, "\u1ed7": 1677, "\u1ed9": 1678, "\u1edb": 1679, "\u1edd": 1680, "\u1ede": 1681, "\u1edf": 1682, "\u1ee1": 1683, "\u1ee3": 1684, "\u1ee5": 1685, "\u1ee6": 1686, "\u1ee7": 1687, "\u1ee8": 1688, "\u1ee9": 1689, "\u1eeb": 1690, "\u1eed": 1691, "\u1eef": 1692, "\u1ef1": 1693, "\u1ef3": 1694, "\u1ef5": 1695, "\u1ef7": 1696, "\u1ef9": 1697, "\u1f00": 1698, "\u1f04": 1699, "\u1f08": 1700, "\u1f10": 1701, "\u1f21": 1702, "\u1f22": 1703, "\u1f30": 1704, "\u1f31": 1705, "\u1f36": 1706, "\u1f41": 1707, "\u1f45": 1708, "\u1f50": 1709, "\u1f61": 1710, "\u1f70": 1711, "\u1f72": 1712, "\u1f74": 1713, "\u1f76": 1714, "\u1f78": 1715, "\u1f7a": 1716, "\u1fc6": 1717, "\u1fc7": 1718, "\u1fd6": 1719, "\u1fe6": 1720, "\u1ff6": 1721, "\u1ff7": 1722, "\u2016": 1723, "\u201a": 1724, "\u201e": 1725, "\u201f": 1726, "\u2020": 1727, "\u2021": 1728, "\u2022": 1729, "\u2024": 1730, "\u2025": 1731, "\u2027": 1732, "\u2030": 1733, "\u2032": 1734, "\u2033": 1735, "\u2039": 1736, "\u203a": 1737, "\u203b": 1738, "\u203f": 1739, "\u2044": 1740, "\u2070": 1741, "\u2071": 1742, "\u2074": 1743, "\u2075": 1744, "\u2076": 1745, "\u2077": 1746, "\u2078": 1747, "\u2079": 1748, "\u207a": 1749, "\u207b": 1750, "\u207e": 1751, "\u207f": 1752, "\u2080": 1753, "\u2081": 1754, "\u2082": 1755, "\u2083": 1756, "\u2084": 1757, "\u2085": 1758, "\u2086": 1759, "\u2087": 1760, "\u2088": 1761, "\u208d": 1762, "\u208e": 1763, "\u2090": 1764, "\u2091": 1765, "\u2092": 1766, "\u2093": 1767, "\u2096": 1768, "\u2098": 1769, "\u2099": 1770, "\u209a": 1771, "\u209b": 1772, "\u209c": 1773, "\u20a4": 1774, "\u20ac": 1775, "\u20b9": 1776, "\u2103": 1777, "\u2113": 1778, "\u2116": 1779, "\u211d": 1780, "\u2122": 1781, "\u2124": 1782, "\u2153": 1783, "\u2154": 1784, "\u2160": 1785, "\u2161": 1786, "\u2162": 1787, "\u2163": 1788, "\u2190": 1789, "\u2191": 1790, "\u2192": 1791, "\u2193": 1792, "\u2194": 1793, "\u21ba": 1794, "\u21c4": 1795, "\u21cc": 1796, "\u21d2": 1797, "\u21d4": 1798, "\u2200": 1799, "\u2205": 1800, "\u2207": 1801, "\u2208": 1802, "\u2212": 1803, "\u2217": 1804, "\u2218": 1805, "\u2219": 1806, "\u221a": 1807, "\u221e": 1808, "\u2227": 1809, "\u2228": 1810, "\u2229": 1811, "\u222a": 1812, "\u222b": 1813, "\u223c": 1814, "\u2248": 1815, "\u2260": 1816, "\u2261": 1817, "\u2264": 1818, "\u2265": 1819, "\u226a": 1820, "\u226b": 1821, "\u2282": 1822, "\u2286": 1823, "\u2295": 1824, "\u2297": 1825, "\u2299": 1826, "\u22c5": 1827, "\u22ef": 1828, "\u2329": 1829, "\u232a": 1830, "\u2460": 1831, "\u2461": 1832, "\u2462": 1833, "\u2463": 1834, "\u2464": 1835, "\u2500": 1836, "\u2501": 1837, "\u2502": 1838, "\u2503": 1839, "\u2513": 1840, "\u2514": 1841, "\u251c": 1842, "\u2523": 1843, "\u252b": 1844, "\u2551": 1845, "\u2588": 1846, "\u25a0": 1847, "\u25a1": 1848, "\u25aa": 1849, "\u25ad": 1850, "\u25b2": 1851, "\u25b3": 1852, "\u25ba": 1853, "\u25bc": 1854, "\u25c6": 1855, "\u25c7": 1856, "\u25cb": 1857, "\u25ce": 1858, "\u25cf": 1859, "\u25e1": 1860, "\u2605": 1861, "\u2606": 1862, "\u2609": 1863, "\u2640": 1864, "\u2642": 1865, "\u2655": 1866, "\u2659": 1867, "\u2660": 1868, "\u2661": 1869, "\u2663": 1870, "\u2665": 1871, "\u2666": 1872, "\u266a": 1873, "\u266d": 1874, "\u266f": 1875, "\u26ad": 1876, "\u271d": 1877, "\u27e8": 1878, "\u27e9": 1879, "\u2c7c": 1880, "\u3001": 1881, "\u3002": 1882, "\u3003": 1883, "\u3005": 1884, "\u3007": 1885, "\u3008": 1886, "\u3009": 1887, "\u300a": 1888, "\u300b": 1889, "\u300c": 1890, "\u300d": 1891, "\u300e": 1892, "\u300f": 1893, "\u3010": 1894, "\u3011": 1895, "\u3012": 1896, "\u3014": 1897, "\u3015": 1898, "\u3016": 1899, "\u3017": 1900, "\u301c": 1901, "\u301d": 1902, "\u3041": 1903, "\u3042": 1904, "\u3043": 1905, "\u3044": 1906, "\u3046": 1907, "\u3047": 1908, "\u3048": 1909, "\u304a": 1910, "\u304b": 1911, "\u304c": 1912, "\u304d": 1913, "\u304e": 1914, "\u304f": 1915, "\u3050": 1916, "\u3051": 1917, "\u3052": 1918, "\u3053": 1919, "\u3054": 1920, "\u3055": 1921, "\u3056": 1922, "\u3057": 1923, "\u3058": 1924, "\u3059": 1925, "\u305a": 1926, "\u305b": 1927, "\u305c": 1928, "\u305d": 1929, "\u305e": 1930, "\u305f": 1931, "\u3060": 1932, "\u3061": 1933, "\u3062": 1934, "\u3063": 1935, "\u3064": 1936, "\u3065": 1937, "\u3066": 1938, "\u3067": 1939, "\u3068": 1940, "\u3069": 1941, "\u306a": 1942, "\u306b": 1943, "\u306c": 1944, "\u306d": 1945, "\u306e": 1946, "\u306f": 1947, "\u3070": 1948, "\u3071": 1949, "\u3072": 1950, "\u3073": 1951, "\u3074": 1952, "\u3075": 1953, "\u3076": 1954, "\u3077": 1955, "\u3078": 1956, "\u3079": 1957, "\u307a": 1958, "\u307b": 1959, "\u307c": 1960, "\u307d": 1961, "\u307e": 1962, "\u307f": 1963, "\u3080": 1964, "\u3081": 1965, "\u3082": 1966, "\u3083": 1967, "\u3084": 1968, "\u3085": 1969, "\u3086": 1970, "\u3087": 1971, "\u3088": 1972, "\u3089": 1973, "\u308a": 1974, "\u308b": 1975, "\u308c": 1976, "\u308d": 1977, "\u308f": 1978, "\u3090": 1979, "\u3092": 1980, "\u3093": 1981, "\u309d": 1982, "\u309e": 1983, "\u30a1": 1984, "\u30a2": 1985, "\u30a3": 1986, "\u30a4": 1987, "\u30a5": 1988, "\u30a6": 1989, "\u30a7": 1990, "\u30a8": 1991, "\u30a9": 1992, "\u30aa": 1993, "\u30ab": 1994, "\u30ac": 1995, "\u30ad": 1996, "\u30ae": 1997, "\u30af": 1998, "\u30b0": 1999, "\u30b1": 2000, "\u30b2": 2001, "\u30b3": 2002, "\u30b4": 2003, "\u30b5": 2004, "\u30b6": 2005, "\u30b7": 2006, "\u30b8": 2007, "\u30b9": 2008, "\u30ba": 2009, "\u30bb": 2010, "\u30bc": 2011, "\u30bd": 2012, "\u30be": 2013, "\u30bf": 2014, "\u30c0": 2015, "\u30c1": 2016, "\u30c2": 2017, "\u30c3": 2018, "\u30c4": 2019, "\u30c5": 2020, "\u30c6": 2021, "\u30c7": 2022, "\u30c8": 2023, "\u30c9": 2024, "\u30ca": 2025, "\u30cb": 2026, "\u30cc": 2027, "\u30cd": 2028, "\u30ce": 2029, "\u30cf": 2030, "\u30d0": 2031, "\u30d1": 2032, "\u30d2": 2033, "\u30d3": 2034, "\u30d4": 2035, "\u30d5": 2036, "\u30d6": 2037, "\u30d7": 2038, "\u30d8": 2039, "\u30d9": 2040, "\u30da": 2041, "\u30db": 2042, "\u30dc": 2043, "\u30dd": 2044, "\u30de": 2045, "\u30df": 2046, "\u30e0": 2047, "\u30e1": 2048, "\u30e2": 2049, "\u30e3": 2050, "\u30e4": 2051, "\u30e5": 2052, "\u30e6": 2053, "\u30e7": 2054, "\u30e8": 2055, "\u30e9": 2056, "\u30ea": 2057, "\u30eb": 2058, "\u30ec": 2059, "\u30ed": 2060, "\u30ef": 2061, "\u30f1": 2062, "\u30f2": 2063, "\u30f3": 2064, "\u30f4": 2065, "\u30f5": 2066, "\u30f6": 2067, "\u30fb": 2068, "\u30fc": 2069, "\u318d": 2070, "\u4c81": 2071, "\u4e00": 2072, "\u4e01": 2073, "\u4e03": 2074, "\u4e07": 2075, "\u4e08": 2076, "\u4e09": 2077, "\u4e0a": 2078, "\u4e0b": 2079, "\u4e0d": 2080, "\u4e0e": 2081, "\u4e10": 2082, "\u4e11": 2083, "\u4e13": 2084, "\u4e14": 2085, "\u4e15": 2086, "\u4e16": 2087, "\u4e18": 2088, "\u4e19": 2089, "\u4e1a": 2090, "\u4e1b": 2091, "\u4e1c": 2092, "\u4e1d": 2093, "\u4e1e": 2094, "\u4e1f": 2095, "\u4e21": 2096, "\u4e22": 2097, "\u4e24": 2098, "\u4e25": 2099, "\u4e26": 2100, "\u4e27": 2101, "\u4e2a": 2102, "\u4e2b": 2103, "\u4e2d": 2104, "\u4e30": 2105, "\u4e32": 2106, "\u4e34": 2107, "\u4e38": 2108, "\u4e39": 2109, "\u4e3a": 2110, "\u4e3b": 2111, "\u4e3c": 2112, "\u4e3d": 2113, "\u4e3e": 2114, "\u4e42": 2115, "\u4e43": 2116, "\u4e45": 2117, "\u4e48": 2118, "\u4e49": 2119, "\u4e4b": 2120, "\u4e4c": 2121, "\u4e4d": 2122, "\u4e4e": 2123, "\u4e4f": 2124, "\u4e50": 2125, "\u4e52": 2126, "\u4e53": 2127, "\u4e54": 2128, "\u4e56": 2129, "\u4e57": 2130, "\u4e58": 2131, "\u4e59": 2132, "\u4e5d": 2133, "\u4e5e": 2134, "\u4e5f": 2135, "\u4e60": 2136, "\u4e61": 2137, "\u4e66": 2138, "\u4e69": 2139, "\u4e70": 2140, "\u4e71": 2141, "\u4e73": 2142, "\u4e7e": 2143, "\u4e80": 2144, "\u4e82": 2145, "\u4e86": 2146, "\u4e88": 2147, "\u4e89": 2148, "\u4e8b": 2149, "\u4e8c": 2150, "\u4e8e": 2151, "\u4e8f": 2152, "\u4e91": 2153, "\u4e92": 2154, "\u4e94": 2155, "\u4e95": 2156, "\u4e98": 2157, "\u4e9a": 2158, "\u4e9b": 2159, "\u4e9c": 2160, "\u4e9e": 2161, "\u4e9f": 2162, "\u4ea1": 2163, "\u4ea2": 2164, "\u4ea4": 2165, "\u4ea5": 2166, "\u4ea6": 2167, "\u4ea7": 2168, "\u4ea8": 2169, "\u4ea9": 2170, "\u4eab": 2171, "\u4eac": 2172, "\u4ead": 2173, "\u4eae": 2174, "\u4eb2": 2175, "\u4eb3": 2176, "\u4eb5": 2177, "\u4eb6": 2178, "\u4eba": 2179, "\u4ebf": 2180, "\u4ec0": 2181, "\u4ec1": 2182, "\u4ec4": 2183, "\u4ec5": 2184, "\u4ec6": 2185, "\u4ec7": 2186, "\u4eca": 2187, "\u4ecb": 2188, "\u4ecd": 2189, "\u4ece": 2190, "\u4ecf": 2191, "\u4ed1": 2192, "\u4ed3": 2193, "\u4ed4": 2194, "\u4ed5": 2195, "\u4ed6": 2196, "\u4ed7": 2197, "\u4ed8": 2198, "\u4ed9": 2199, "\u4edd": 2200, "\u4ee1": 2201, "\u4ee3": 2202, "\u4ee4": 2203, "\u4ee5": 2204, "\u4eea": 2205, "\u4eec": 2206, "\u4eee": 2207, "\u4ef0": 2208, "\u4ef2": 2209, "\u4ef6": 2210, "\u4ef7": 2211, "\u4efb": 2212, "\u4efd": 2213, "\u4eff": 2214, "\u4f01": 2215, "\u4f09": 2216, "\u4f0a": 2217, "\u4f0d": 2218, "\u4f0e": 2219, "\u4f0f": 2220, "\u4f10": 2221, "\u4f11": 2222, "\u4f17": 2223, "\u4f18": 2224, "\u4f19": 2225, "\u4f1a": 2226, "\u4f1d": 2227, "\u4f1e": 2228, "\u4f1f": 2229, "\u4f20": 2230, "\u4f24": 2231, "\u4f26": 2232, "\u4f2a": 2233, "\u4f2f": 2234, "\u4f30": 2235, "\u4f34": 2236, "\u4f36": 2237, "\u4f38": 2238, "\u4f3a": 2239, "\u4f3c": 2240, "\u4f3d": 2241, "\u4f43": 2242, "\u4f46": 2243, "\u4f47": 2244, "\u4f48": 2245, "\u4f4d": 2246, "\u4f4e": 2247, "\u4f4f": 2248, "\u4f50": 2249, "\u4f51": 2250, "\u4f53": 2251, "\u4f54": 2252, "\u4f55": 2253, "\u4f57": 2254, "\u4f58": 2255, "\u4f59": 2256, "\u4f5a": 2257, "\u4f5b": 2258, "\u4f5c": 2259, "\u4f5e": 2260, "\u4f5f": 2261, "\u4f60": 2262, "\u4f62": 2263, "\u4f63": 2264, "\u4f64": 2265, "\u4f65": 2266, "\u4f69": 2267, "\u4f6c": 2268, "\u4f6f": 2269, "\u4f70": 2270, "\u4f73": 2271, "\u4f75": 2272, "\u4f76": 2273, "\u4f7c": 2274, "\u4f7f": 2275, "\u4f83": 2276, "\u4f84": 2277, "\u4f86": 2278, "\u4f88": 2279, "\u4f8b": 2280, "\u4f8d": 2281, "\u4f8f": 2282, "\u4f91": 2283, "\u4f96": 2284, "\u4f97": 2285, "\u4f9b": 2286, "\u4f9d": 2287, "\u4fa0": 2288, "\u4fa1": 2289, "\u4fa3": 2290, "\u4fa6": 2291, "\u4fa7": 2292, "\u4fa8": 2293, "\u4fac": 2294, "\u4fae": 2295, "\u4faf": 2296, "\u4fb5": 2297, "\u4fb6": 2298, "\u4fbf": 2299, "\u4fc1": 2300, "\u4fc2": 2301, "\u4fc3": 2302, "\u4fc4": 2303, "\u4fca": 2304, "\u4fce": 2305, "\u4fcf": 2306, "\u4fd0": 2307, "\u4fd1": 2308, "\u4fd7": 2309, "\u4fd8": 2310, "\u4fda": 2311, "\u4fdd": 2312, "\u4fde": 2313, "\u4fdf": 2314, "\u4fe0": 2315, "\u4fe1": 2316, "\u4fe3": 2317, "\u4fe8": 2318, "\u4fe9": 2319, "\u4fea": 2320, "\u4fed": 2321, "\u4fee": 2322, "\u4fef": 2323, "\u4ff1": 2324, "\u4ff3": 2325, "\u4ff5": 2326, "\u4ff6": 2327, "\u4ff8": 2328, "\u4ffa": 2329, "\u4ffe": 2330, "\u5006": 2331, "\u5009": 2332, "\u500b": 2333, "\u500d": 2334, "\u5011": 2335, "\u5012": 2336, "\u5016": 2337, "\u5018": 2338, "\u5019": 2339, "\u501a": 2340, "\u501f": 2341, "\u5021": 2342, "\u5023": 2343, "\u5024": 2344, "\u5026": 2345, "\u5029": 2346, "\u502a": 2347, "\u502b": 2348, "\u502c": 2349, "\u502d": 2350, "\u5036": 2351, "\u5039": 2352, "\u503a": 2353, "\u503b": 2354, "\u503c": 2355, "\u503e": 2356, "\u5043": 2357, "\u5047": 2358, "\u5048": 2359, "\u5049": 2360, "\u504f": 2361, "\u5055": 2362, "\u505a": 2363, "\u505c": 2364, "\u5065": 2365, "\u5072": 2366, "\u5074": 2367, "\u5075": 2368, "\u5076": 2369, "\u5077": 2370, "\u507d": 2371, "\u507f": 2372, "\u5080": 2373, "\u5085": 2374, "\u5088": 2375, "\u508d": 2376, "\u5091": 2377, "\u5095": 2378, "\u5098": 2379, "\u5099": 2380, "\u50a2": 2381, "\u50a3": 2382, "\u50a8": 2383, "\u50ac": 2384, "\u50ad": 2385, "\u50b2": 2386, "\u50b3": 2387, "\u50b5": 2388, "\u50b7": 2389, "\u50bb": 2390, "\u50be": 2391, "\u50c5": 2392, "\u50c9": 2393, "\u50cd": 2394, "\u50cf": 2395, "\u50d1": 2396, "\u50d5": 2397, "\u50d6": 2398, "\u50da": 2399, "\u50e7": 2400, "\u50ed": 2401, "\u50ee": 2402, "\u50f1": 2403, "\u50f3": 2404, "\u50f5": 2405, "\u50f9": 2406, "\u50fb": 2407, "\u5100": 2408, "\u5101": 2409, "\u5102": 2410, "\u5104": 2411, "\u5109": 2412, "\u510b": 2413, "\u5112": 2414, "\u5118": 2415, "\u511a": 2416, "\u511f": 2417, "\u5121": 2418, "\u512a": 2419, "\u5132": 2420, "\u5137": 2421, "\u513c": 2422, "\u513f": 2423, "\u5140": 2424, "\u5141": 2425, "\u5143": 2426, "\u5144": 2427, "\u5145": 2428, "\u5146": 2429, "\u5147": 2430, "\u5148": 2431, "\u5149": 2432, "\u514b": 2433, "\u514c": 2434, "\u514d": 2435, "\u514e": 2436, "\u5150": 2437, "\u5151": 2438, "\u5152": 2439, "\u5154": 2440, "\u5156": 2441, "\u5157": 2442, "\u515a": 2443, "\u515c": 2444, "\u5162": 2445, "\u5165": 2446, "\u5167": 2447, "\u5168": 2448, "\u5169": 2449, "\u516a": 2450, "\u516b": 2451, "\u516c": 2452, "\u516d": 2453, "\u516e": 2454, "\u5170": 2455, "\u5171": 2456, "\u5173": 2457, "\u5174": 2458, "\u5175": 2459, "\u5176": 2460, "\u5177": 2461, "\u5178": 2462, "\u5179": 2463, "\u517b": 2464, "\u517c": 2465, "\u517d": 2466, "\u5180": 2467, "\u5185": 2468, "\u5186": 2469, "\u5187": 2470, "\u5188": 2471, "\u5189": 2472, "\u518a": 2473, "\u518c": 2474, "\u518d": 2475, "\u518f": 2476, "\u5191": 2477, "\u5192": 2478, "\u5195": 2479, "\u5197": 2480, "\u5199": 2481, "\u519b": 2482, "\u519c": 2483, "\u51a0": 2484, "\u51a2": 2485, "\u51a4": 2486, "\u51a5": 2487, "\u51a8": 2488, "\u51aa": 2489, "\u51ac": 2490, "\u51af": 2491, "\u51b0": 2492, "\u51b2": 2493, "\u51b3": 2494, "\u51b4": 2495, "\u51b5": 2496, "\u51b6": 2497, "\u51b7": 2498, "\u51bb": 2499, "\u51bc": 2500, "\u51c0": 2501, "\u51c4": 2502, "\u51c6": 2503, "\u51c9": 2504, "\u51cb": 2505, "\u51cc": 2506, "\u51cd": 2507, "\u51cf": 2508, "\u51d1": 2509, "\u51db": 2510, "\u51dc": 2511, "\u51dd": 2512, "\u51e0": 2513, "\u51e1": 2514, "\u51e4": 2515, "\u51e6": 2516, "\u51e7": 2517, "\u51ea": 2518, "\u51ed": 2519, "\u51ef": 2520, "\u51f0": 2521, "\u51f1": 2522, "\u51f3": 2523, "\u51f6": 2524, "\u51f8": 2525, "\u51f9": 2526, "\u51fa": 2527, "\u51fb": 2528, "\u51fd": 2529, "\u51ff": 2530, "\u5200": 2531, "\u5201": 2532, "\u5203": 2533, "\u5206": 2534, "\u5207": 2535, "\u5208": 2536, "\u520a": 2537, "\u520d": 2538, "\u520e": 2539, "\u5211": 2540, "\u5212": 2541, "\u5217": 2542, "\u5218": 2543, "\u5219": 2544, "\u521a": 2545, "\u521b": 2546, "\u521d": 2547, "\u5220": 2548, "\u5224": 2549, "\u5225": 2550, "\u5229": 2551, "\u522a": 2552, "\u522b": 2553, "\u522e": 2554, "\u5230": 2555, "\u5236": 2556, "\u5237": 2557, "\u5238": 2558, "\u5239": 2559, "\u523a": 2560, "\u523b": 2561, "\u5242": 2562, "\u5243": 2563, "\u5247": 2564, "\u524a": 2565, "\u524b": 2566, "\u524c": 2567, "\u524d": 2568, "\u524e": 2569, "\u5251": 2570, "\u5254": 2571, "\u5256": 2572, "\u525b": 2573, "\u525d": 2574, "\u5263": 2575, "\u5264": 2576, "\u5265": 2577, "\u5267": 2578, "\u5269": 2579, "\u526a": 2580, "\u526f": 2581, "\u5270": 2582, "\u5272": 2583, "\u5275": 2584, "\u5277": 2585, "\u527d": 2586, "\u527f": 2587, "\u5283": 2588, "\u5287": 2589, "\u5288": 2590, "\u5289": 2591, "\u528d": 2592, "\u5291": 2593, "\u529b": 2594, "\u529d": 2595, "\u529e": 2596, "\u529f": 2597, "\u52a0": 2598, "\u52a1": 2599, "\u52a3": 2600, "\u52a8": 2601, "\u52a9": 2602, "\u52aa": 2603, "\u52ab": 2604, "\u52ad": 2605, "\u52b1": 2606, "\u52b2": 2607, "\u52b3": 2608, "\u52b4": 2609, "\u52b9": 2610, "\u52be": 2611, "\u52bf": 2612, "\u52c1": 2613, "\u52c3": 2614, "\u52c5": 2615, "\u52c7": 2616, "\u52c9": 2617, "\u52cb": 2618, "\u52d0": 2619, "\u52d2": 2620, "\u52d5": 2621, "\u52d6": 2622, "\u52d7": 2623, "\u52d8": 2624, "\u52d9": 2625, "\u52db": 2626, "\u52dd": 2627, "\u52de": 2628, "\u52df": 2629, "\u52e2": 2630, "\u52e4": 2631, "\u52e7": 2632, "\u52f2": 2633, "\u52f3": 2634, "\u52f5": 2635, "\u52f8": 2636, "\u52fa": 2637, "\u52fb": 2638, "\u52fe": 2639, "\u52ff": 2640, "\u5300": 2641, "\u5302": 2642, "\u5305": 2643, "\u5306": 2644, "\u5308": 2645, "\u530d": 2646, "\u5310": 2647, "\u5315": 2648, "\u5316": 2649, "\u5317": 2650, "\u5319": 2651, "\u531d": 2652, "\u5320": 2653, "\u5321": 2654, "\u5323": 2655, "\u532a": 2656, "\u532e": 2657, "\u532f": 2658, "\u5331": 2659, "\u5339": 2660, "\u533a": 2661, "\u533b": 2662, "\u533e": 2663, "\u533f": 2664, "\u5340": 2665, "\u5341": 2666, "\u5343": 2667, "\u5345": 2668, "\u5347": 2669, "\u5348": 2670, "\u5349": 2671, "\u534a": 2672, "\u534d": 2673, "\u534e": 2674, "\u534f": 2675, "\u5351": 2676, "\u5352": 2677, "\u5353": 2678, "\u5354": 2679, "\u5355": 2680, "\u5356": 2681, "\u5357": 2682, "\u5358": 2683, "\u535a": 2684, "\u535c": 2685, "\u535e": 2686, "\u5360": 2687, "\u5361": 2688, "\u5362": 2689, "\u5364": 2690, "\u5366": 2691, "\u5367": 2692, "\u536b": 2693, "\u536f": 2694, "\u5370": 2695, "\u5371": 2696, "\u5373": 2697, "\u5374": 2698, "\u5375": 2699, "\u5377": 2700, "\u5378": 2701, "\u537b": 2702, "\u537f": 2703, "\u5382": 2704, "\u5384": 2705, "\u5385": 2706, "\u5386": 2707, "\u5389": 2708, "\u538b": 2709, "\u538c": 2710, "\u5395": 2711, "\u5398": 2712, "\u539a": 2713, "\u539d": 2714, "\u539f": 2715, "\u53a2": 2716, "\u53a5": 2717, "\u53a6": 2718, "\u53a8": 2719, "\u53a9": 2720, "\u53ad": 2721, "\u53b2": 2722, "\u53b3": 2723, "\u53bb": 2724, "\u53bf": 2725, "\u53c2": 2726, "\u53c3": 2727, "\u53c8": 2728, "\u53c9": 2729, "\u53ca": 2730, "\u53cb": 2731, "\u53cc": 2732, "\u53cd": 2733, "\u53ce": 2734, "\u53d1": 2735, "\u53d4": 2736, "\u53d6": 2737, "\u53d7": 2738, "\u53d8": 2739, "\u53d9": 2740, "\u53db": 2741, "\u53df": 2742, "\u53e0": 2743, "\u53e1": 2744, "\u53e2": 2745, "\u53e3": 2746, "\u53e4": 2747, "\u53e5": 2748, "\u53e6": 2749, "\u53e9": 2750, "\u53ea": 2751, "\u53eb": 2752, "\u53ec": 2753, "\u53ed": 2754, "\u53ee": 2755, "\u53ef": 2756, "\u53f0": 2757, "\u53f1": 2758, "\u53f2": 2759, "\u53f3": 2760, "\u53f6": 2761, "\u53f7": 2762, "\u53f8": 2763, "\u53f9": 2764, "\u53fb": 2765, "\u5401": 2766, "\u5403": 2767, "\u5404": 2768, "\u5408": 2769, "\u5409": 2770, "\u540a": 2771, "\u540b": 2772, "\u540c": 2773, "\u540d": 2774, "\u540e": 2775, "\u540f": 2776, "\u5410": 2777, "\u5411": 2778, "\u5412": 2779, "\u5413": 2780, "\u5415": 2781, "\u5417": 2782, "\u541b": 2783, "\u541d": 2784, "\u541e": 2785, "\u541f": 2786, "\u5420": 2787, "\u5421": 2788, "\u5426": 2789, "\u5427": 2790, "\u5428": 2791, "\u5429": 2792, "\u542b": 2793, "\u542c": 2794, "\u542f": 2795, "\u5433": 2796, "\u5434": 2797, "\u5435": 2798, "\u5436": 2799, "\u5438": 2800, "\u5439": 2801, "\u543b": 2802, "\u543c": 2803, "\u543e": 2804, "\u5440": 2805, "\u5442": 2806, "\u5446": 2807, "\u5448": 2808, "\u5449": 2809, "\u544a": 2810, "\u544b": 2811, "\u544e": 2812, "\u5450": 2813, "\u5451": 2814, "\u5455": 2815, "\u5458": 2816, "\u545b": 2817, "\u545c": 2818, "\u545f": 2819, "\u5462": 2820, "\u5464": 2821, "\u5468": 2822, "\u546a": 2823, "\u5473": 2824, "\u5475": 2825, "\u547c": 2826, "\u547d": 2827, "\u5480": 2828, "\u5481": 2829, "\u5484": 2830, "\u5486": 2831, "\u548b": 2832, "\u548c": 2833, "\u548e": 2834, "\u548f": 2835, "\u5490": 2836, "\u5492": 2837, "\u5495": 2838, "\u5496": 2839, "\u54a4": 2840, "\u54a5": 2841, "\u54a8": 2842, "\u54a9": 2843, "\u54aa": 2844, "\u54ab": 2845, "\u54ac": 2846, "\u54af": 2847, "\u54b1": 2848, "\u54b2": 2849, "\u54b3": 2850, "\u54b8": 2851, "\u54bd": 2852, "\u54c0": 2853, "\u54c1": 2854, "\u54c4": 2855, "\u54c6": 2856, "\u54c7": 2857, "\u54c8": 2858, "\u54c9": 2859, "\u54cc": 2860, "\u54cd": 2861, "\u54d1": 2862, "\u54d7": 2863, "\u54e1": 2864, "\u54e5": 2865, "\u54e6": 2866, "\u54e8": 2867, "\u54e9": 2868, "\u54ea": 2869, "\u54ed": 2870, "\u54ee": 2871, "\u54f2": 2872, "\u54fa": 2873, "\u54fc": 2874, "\u5501": 2875, "\u5504": 2876, "\u5506": 2877, "\u5507": 2878, "\u5510": 2879, "\u5511": 2880, "\u5514": 2881, "\u5516": 2882, "\u5524": 2883, "\u552e": 2884, "\u552f": 2885, "\u5531": 2886, "\u5538": 2887, "\u553e": 2888, "\u5544": 2889, "\u5546": 2890, "\u5549": 2891, "\u554a": 2892, "\u554f": 2893, "\u5553": 2894, "\u5556": 2895, "\u555c": 2896, "\u555e": 2897, "\u555f": 2898, "\u5561": 2899, "\u5564": 2900, "\u5566": 2901, "\u556e": 2902, "\u5570": 2903, "\u5576": 2904, "\u5578": 2905, "\u557c": 2906, "\u557e": 2907, "\u5580": 2908, "\u5582": 2909, "\u5583": 2910, "\u5584": 2911, "\u5586": 2912, "\u5587": 2913, "\u5589": 2914, "\u558a": 2915, "\u558b": 2916, "\u5594": 2917, "\u5598": 2918, "\u5599": 2919, "\u559a": 2920, "\u559c": 2921, "\u559d": 2922, "\u55a7": 2923, "\u55a9": 2924, "\u55aa": 2925, "\u55ab": 2926, "\u55ac": 2927, "\u55ae": 2928, "\u55b0": 2929, "\u55b1": 2930, "\u55b5": 2931, "\u55b6": 2932, "\u55b7": 2933, "\u55bb": 2934, "\u55c5": 2935, "\u55ce": 2936, "\u55d3": 2937, "\u55da": 2938, "\u55dc": 2939, "\u55df": 2940, "\u55e3": 2941, "\u55ea": 2942, "\u55fd": 2943, "\u5605": 2944, "\u5606": 2945, "\u5609": 2946, "\u560c": 2947, "\u560e": 2948, "\u5614": 2949, "\u5617": 2950, "\u5618": 2951, "\u561b": 2952, "\u561f": 2953, "\u5622": 2954, "\u5627": 2955, "\u5629": 2956, "\u562f": 2957, "\u5631": 2958, "\u5632": 2959, "\u5634": 2960, "\u5636": 2961, "\u563b": 2962, "\u563f": 2963, "\u5641": 2964, "\u5642": 2965, "\u564c": 2966, "\u5657": 2967, "\u565b": 2968, "\u565c": 2969, "\u5668": 2970, "\u5669": 2971, "\u566a": 2972, "\u566c": 2973, "\u5674": 2974, "\u5676": 2975, "\u5678": 2976, "\u5679": 2977, "\u567a": 2978, "\u567b": 2979, "\u5686": 2980, "\u5687": 2981, "\u568e": 2982, "\u5695": 2983, "\u56a2": 2984, "\u56a3": 2985, "\u56ae": 2986, "\u56b4": 2987, "\u56bc": 2988, "\u56c1": 2989, "\u56c2": 2990, "\u56c3": 2991, "\u56c9": 2992, "\u56ca": 2993, "\u56cd": 2994, "\u56d1": 2995, "\u56d7": 2996, "\u56da": 2997, "\u56db": 2998, "\u56de": 2999, "\u56e0": 3000, "\u56e2": 3001, "\u56e3": 3002, "\u56e4": 3003, "\u56e7": 3004, "\u56ea": 3005, "\u56ed": 3006, "\u56ee": 3007, "\u56f0": 3008, "\u56f1": 3009, "\u56f2": 3010, "\u56f3": 3011, "\u56f4": 3012, "\u56fa": 3013, "\u56fd": 3014, "\u56fe": 3015, "\u5700": 3016, "\u5703": 3017, "\u5706": 3018, "\u5708": 3019, "\u570b": 3020, "\u570d": 3021, "\u570f": 3022, "\u5712": 3023, "\u5713": 3024, "\u5716": 3025, "\u5718": 3026, "\u571c": 3027, "\u571f": 3028, "\u5723": 3029, "\u5727": 3030, "\u5728": 3031, "\u5729": 3032, "\u572a": 3033, "\u572d": 3034, "\u5730": 3035, "\u5733": 3036, "\u573a": 3037, "\u573b": 3038, "\u573e": 3039, "\u5740": 3040, "\u5742": 3041, "\u5747": 3042, "\u574a": 3043, "\u574d": 3044, "\u574e": 3045, "\u574f": 3046, "\u5750": 3047, "\u5751": 3048, "\u5757": 3049, "\u575a": 3050, "\u575b": 3051, "\u575c": 3052, "\u575d": 3053, "\u575e": 3054, "\u575f": 3055, "\u5760": 3056, "\u5761": 3057, "\u5764": 3058, "\u5766": 3059, "\u5768": 3060, "\u576a": 3061, "\u5773": 3062, "\u5775": 3063, "\u5777": 3064, "\u5782": 3065, "\u5783": 3066, "\u5784": 3067, "\u5785": 3068, "\u578b": 3069, "\u578c": 3070, "\u5792": 3071, "\u5793": 3072, "\u579b": 3073, "\u579f": 3074, "\u57a0": 3075, "\u57a2": 3076, "\u57a3": 3077, "\u57a6": 3078, "\u57a9": 3079, "\u57ab": 3080, "\u57ad": 3081, "\u57ae": 3082, "\u57b8": 3083, "\u57c3": 3084, "\u57cb": 3085, "\u57ce": 3086, "\u57d4": 3087, "\u57d5": 3088, "\u57d7": 3089, "\u57dc": 3090, "\u57df": 3091, "\u57e0": 3092, "\u57e1": 3093, "\u57e4": 3094, "\u57ed": 3095, "\u57f4": 3096, "\u57f7": 3097, "\u57f9": 3098, "\u57fa": 3099, "\u57fc": 3100, "\u5800": 3101, "\u5802": 3102, "\u5803": 3103, "\u5805": 3104, "\u5806": 3105, "\u5807": 3106, "\u580a": 3107, "\u5811": 3108, "\u5815": 3109, "\u5821": 3110, "\u5824": 3111, "\u582a": 3112, "\u582f": 3113, "\u5830": 3114, "\u5831": 3115, "\u5834": 3116, "\u5835": 3117, "\u583a": 3118, "\u5840": 3119, "\u5841": 3120, "\u584a": 3121, "\u584c": 3122, "\u5851": 3123, "\u5854": 3124, "\u5857": 3125, "\u5858": 3126, "\u5859": 3127, "\u585a": 3128, "\u585e": 3129, "\u5862": 3130, "\u5869": 3131, "\u586b": 3132, "\u586c": 3133, "\u586d": 3134, "\u5875": 3135, "\u5879": 3136, "\u587e": 3137, "\u5880": 3138, "\u5883": 3139, "\u5885": 3140, "\u5889": 3141, "\u588a": 3142, "\u5893": 3143, "\u5897": 3144, "\u5898": 3145, "\u5899": 3146, "\u589c": 3147, "\u589e": 3148, "\u589f": 3149, "\u58a8": 3150, "\u58a9": 3151, "\u58ae": 3152, "\u58b3": 3153, "\u58be": 3154, "\u58c1": 3155, "\u58c7": 3156, "\u58ca": 3157, "\u58cc": 3158, "\u58d1": 3159, "\u58d3": 3160, "\u58d5": 3161, "\u58d8": 3162, "\u58de": 3163, "\u58df": 3164, "\u58e0": 3165, "\u58e2": 3166, "\u58e4": 3167, "\u58e9": 3168, "\u58eb": 3169, "\u58ec": 3170, "\u58ee": 3171, "\u58ef": 3172, "\u58f0": 3173, "\u58f1": 3174, "\u58f2": 3175, "\u58f3": 3176, "\u58f6": 3177, "\u58f7": 3178, "\u58f9": 3179, "\u58fa": 3180, "\u58fd": 3181, "\u5904": 3182, "\u5907": 3183, "\u5909": 3184, "\u590d": 3185, "\u590f": 3186, "\u5914": 3187, "\u5915": 3188, "\u5916": 3189, "\u5919": 3190, "\u591a": 3191, "\u591c": 3192, "\u591f": 3193, "\u5920": 3194, "\u5922": 3195, "\u5925": 3196, "\u5927": 3197, "\u5929": 3198, "\u592a": 3199, "\u592b": 3200, "\u592d": 3201, "\u592e": 3202, "\u592f": 3203, "\u5931": 3204, "\u5934": 3205, "\u5937": 3206, "\u5938": 3207, "\u5939": 3208, "\u593a": 3209, "\u593e": 3210, "\u5944": 3211, "\u5947": 3212, "\u5948": 3213, "\u5949": 3214, "\u594b": 3215, "\u594e": 3216, "\u594f": 3217, "\u5950": 3218, "\u5951": 3219, "\u5954": 3220, "\u5955": 3221, "\u5956": 3222, "\u5957": 3223, "\u5958": 3224, "\u595a": 3225, "\u5960": 3226, "\u5962": 3227, "\u5965": 3228, "\u5967": 3229, "\u5968": 3230, "\u596a": 3231, "\u596c": 3232, "\u596d": 3233, "\u596e": 3234, "\u5973": 3235, "\u5974": 3236, "\u5976": 3237, "\u5978": 3238, "\u5979": 3239, "\u597d": 3240, "\u5982": 3241, "\u5983": 3242, "\u5984": 3243, "\u5986": 3244, "\u5987": 3245, "\u5988": 3246, "\u598a": 3247, "\u598d": 3248, "\u5992": 3249, "\u5993": 3250, "\u5996": 3251, "\u5999": 3252, "\u599d": 3253, "\u599e": 3254, "\u59a4": 3255, "\u59a5": 3256, "\u59a8": 3257, "\u59ac": 3258, "\u59ae": 3259, "\u59b2": 3260, "\u59b3": 3261, "\u59b9": 3262, "\u59bb": 3263, "\u59be": 3264, "\u59c6": 3265, "\u59c9": 3266, "\u59ca": 3267, "\u59cb": 3268, "\u59cd": 3269, "\u59d0": 3270, "\u59d1": 3271, "\u59d3": 3272, "\u59d4": 3273, "\u59d7": 3274, "\u59da": 3275, "\u59dc": 3276, "\u59dd": 3277, "\u59e5": 3278, "\u59e6": 3279, "\u59e8": 3280, "\u59ea": 3281, "\u59eb": 3282, "\u59ec": 3283, "\u59f6": 3284, "\u59fb": 3285, "\u59ff": 3286, "\u5a01": 3287, "\u5a03": 3288, "\u5a04": 3289, "\u5a05": 3290, "\u5a07": 3291, "\u5a11": 3292, "\u5a18": 3293, "\u5a1b": 3294, "\u5a1c": 3295, "\u5a1f": 3296, "\u5a20": 3297, "\u5a23": 3298, "\u5a25": 3299, "\u5a29": 3300, "\u5a2f": 3301, "\u5a31": 3302, "\u5a34": 3303, "\u5a36": 3304, "\u5a3c": 3305, "\u5a41": 3306, "\u5a46": 3307, "\u5a49": 3308, "\u5a55": 3309, "\u5a5a": 3310, "\u5a62": 3311, "\u5a66": 3312, "\u5a67": 3313, "\u5a6a": 3314, "\u5a6d": 3315, "\u5a74": 3316, "\u5a76": 3317, "\u5a77": 3318, "\u5a7a": 3319, "\u5a7f": 3320, "\u5a92": 3321, "\u5a9a": 3322, "\u5a9b": 3323, "\u5ab2": 3324, "\u5ab3": 3325, "\u5abd": 3326, "\u5ac1": 3327, "\u5ac2": 3328, "\u5ac9": 3329, "\u5acc": 3330, "\u5ad4": 3331, "\u5ad6": 3332, "\u5ae1": 3333, "\u5ae3": 3334, "\u5ae6": 3335, "\u5ae9": 3336, "\u5afb": 3337, "\u5b05": 3338, "\u5b09": 3339, "\u5b0c": 3340, "\u5b22": 3341, "\u5b24": 3342, "\u5b2a": 3343, "\u5b2c": 3344, "\u5b30": 3345, "\u5b34": 3346, "\u5b37": 3347, "\u5b38": 3348, "\u5b40": 3349, "\u5b50": 3350, "\u5b54": 3351, "\u5b55": 3352, "\u5b56": 3353, "\u5b57": 3354, "\u5b58": 3355, "\u5b59": 3356, "\u5b5a": 3357, "\u5b5b": 3358, "\u5b5c": 3359, "\u5b5d": 3360, "\u5b5f": 3361, "\u5b62": 3362, "\u5b63": 3363, "\u5b64": 3364, "\u5b66": 3365, "\u5b69": 3366, "\u5b6b": 3367, "\u5b70": 3368, "\u5b75": 3369, "\u5b78": 3370, "\u5b7a": 3371, "\u5b7d": 3372, "\u5b81": 3373, "\u5b83": 3374, "\u5b85": 3375, "\u5b87": 3376, "\u5b88": 3377, "\u5b89": 3378, "\u5b8b": 3379, "\u5b8c": 3380, "\u5b8d": 3381, "\u5b8f": 3382, "\u5b93": 3383, "\u5b95": 3384, "\u5b97": 3385, "\u5b98": 3386, "\u5b99": 3387, "\u5b9a": 3388, "\u5b9b": 3389, "\u5b9c": 3390, "\u5b9d": 3391, "\u5b9e": 3392, "\u5b9f": 3393, "\u5ba0": 3394, "\u5ba1": 3395, "\u5ba2": 3396, "\u5ba3": 3397, "\u5ba4": 3398, "\u5ba5": 3399, "\u5ba6": 3400, "\u5baa": 3401, "\u5bab": 3402, "\u5bae": 3403, "\u5bb0": 3404, "\u5bb3": 3405, "\u5bb4": 3406, "\u5bb5": 3407, "\u5bb6": 3408, "\u5bb8": 3409, "\u5bb9": 3410, "\u5bbd": 3411, "\u5bbe": 3412, "\u5bbf": 3413, "\u5bc2": 3414, "\u5bc4": 3415, "\u5bc5": 3416, "\u5bc6": 3417, "\u5bc7": 3418, "\u5bcc": 3419, "\u5bd0": 3420, "\u5bd2": 3421, "\u5bd3": 3422, "\u5bd4": 3423, "\u5bdb": 3424, "\u5bdd": 3425, "\u5bde": 3426, "\u5bdf": 3427, "\u5be1": 3428, "\u5be2": 3429, "\u5be5": 3430, "\u5be6": 3431, "\u5be7": 3432, "\u5be8": 3433, "\u5be9": 3434, "\u5beb": 3435, "\u5bec": 3436, "\u5bee": 3437, "\u5bf0": 3438, "\u5bf5": 3439, "\u5bf6": 3440, "\u5bf8": 3441, "\u5bf9": 3442, "\u5bfa": 3443, "\u5bfb": 3444, "\u5bfc": 3445, "\u5bfe": 3446, "\u5bff": 3447, "\u5c01": 3448, "\u5c02": 3449, "\u5c04": 3450, "\u5c06": 3451, "\u5c07": 3452, "\u5c08": 3453, "\u5c09": 3454, "\u5c0a": 3455, "\u5c0b": 3456, "\u5c0d": 3457, "\u5c0e": 3458, "\u5c0f": 3459, "\u5c11": 3460, "\u5c14": 3461, "\u5c15": 3462, "\u5c16": 3463, "\u5c18": 3464, "\u5c19": 3465, "\u5c1a": 3466, "\u5c1d": 3467, "\u5c24": 3468, "\u5c27": 3469, "\u5c2c": 3470, "\u5c2d": 3471, "\u5c31": 3472, "\u5c34": 3473, "\u5c37": 3474, "\u5c38": 3475, "\u5c39": 3476, "\u5c3a": 3477, "\u5c3b": 3478, "\u5c3c": 3479, "\u5c3d": 3480, "\u5c3e": 3481, "\u5c3f": 3482, "\u5c40": 3483, "\u5c41": 3484, "\u5c42": 3485, "\u5c45": 3486, "\u5c46": 3487, "\u5c48": 3488, "\u5c4a": 3489, "\u5c4b": 3490, "\u5c4d": 3491, "\u5c4e": 3492, "\u5c4f": 3493, "\u5c51": 3494, "\u5c55": 3495, "\u5c5e": 3496, "\u5c60": 3497, "\u5c61": 3498, "\u5c62": 3499, "\u5c64": 3500, "\u5c65": 3501, "\u5c6c": 3502, "\u5c6f": 3503, "\u5c71": 3504, "\u5c79": 3505, "\u5c7f": 3506, "\u5c81": 3507, "\u5c82": 3508, "\u5c8c": 3509, "\u5c90": 3510, "\u5c91": 3511, "\u5c94": 3512, "\u5c96": 3513, "\u5c97": 3514, "\u5c98": 3515, "\u5c99": 3516, "\u5c9a": 3517, "\u5c9b": 3518, "\u5ca1": 3519, "\u5ca9": 3520, "\u5cab": 3521, "\u5cac": 3522, "\u5cad": 3523, "\u5cb1": 3524, "\u5cb3": 3525, "\u5cb7": 3526, "\u5cb8": 3527, "\u5cc1": 3528, "\u5cc7": 3529, "\u5cd2": 3530, "\u5cd9": 3531, "\u5ce0": 3532, "\u5ce1": 3533, "\u5ce6": 3534, "\u5ce8": 3535, "\u5cea": 3536, "\u5ced": 3537, "\u5cef": 3538, "\u5cf0": 3539, "\u5cf4": 3540, "\u5cf6": 3541, "\u5cfb": 3542, "\u5cfd": 3543, "\u5d01": 3544, "\u5d07": 3545, "\u5d0e": 3546, "\u5d11": 3547, "\u5d14": 3548, "\u5d16": 3549, "\u5d17": 3550, "\u5d19": 3551, "\u5d1b": 3552, "\u5d27": 3553, "\u5d29": 3554, "\u5d2d": 3555, "\u5d34": 3556, "\u5d47": 3557, "\u5d4a": 3558, "\u5d4b": 3559, "\u5d4c": 3560, "\u5d50": 3561, "\u5d5c": 3562, "\u5d69": 3563, "\u5d6f": 3564, "\u5d84": 3565, "\u5d87": 3566, "\u5d8b": 3567, "\u5da0": 3568, "\u5db7": 3569, "\u5dba": 3570, "\u5dbc": 3571, "\u5dbd": 3572, "\u5dc5": 3573, "\u5dcc": 3574, "\u5dcd": 3575, "\u5dd2": 3576, "\u5dd4": 3577, "\u5dd6": 3578, "\u5ddd": 3579, "\u5dde": 3580, "\u5de1": 3581, "\u5de2": 3582, "\u5de3": 3583, "\u5de5": 3584, "\u5de6": 3585, "\u5de7": 3586, "\u5de8": 3587, "\u5de9": 3588, "\u5deb": 3589, "\u5dee": 3590, "\u5df1": 3591, "\u5df2": 3592, "\u5df3": 3593, "\u5df4": 3594, "\u5df7": 3595, "\u5dfb": 3596, "\u5dfd": 3597, "\u5dfe": 3598, "\u5e01": 3599, "\u5e02": 3600, "\u5e03": 3601, "\u5e05": 3602, "\u5e06": 3603, "\u5e08": 3604, "\u5e0c": 3605, "\u5e10": 3606, "\u5e11": 3607, "\u5e15": 3608, "\u5e16": 3609, "\u5e18": 3610, "\u5e1a": 3611, "\u5e1b": 3612, "\u5e1c": 3613, "\u5e1d": 3614, "\u5e25": 3615, "\u5e26": 3616, "\u5e27": 3617, "\u5e2b": 3618, "\u5e2d": 3619, "\u5e2e": 3620, "\u5e2f": 3621, "\u5e30": 3622, "\u5e33": 3623, "\u5e36": 3624, "\u5e37": 3625, "\u5e38": 3626, "\u5e3d": 3627, "\u5e40": 3628, "\u5e42": 3629, "\u5e45": 3630, "\u5e47": 3631, "\u5e4c": 3632, "\u5e54": 3633, "\u5e55": 3634, "\u5e5f": 3635, "\u5e61": 3636, "\u5e62": 3637, "\u5e63": 3638, "\u5e6b": 3639, "\u5e72": 3640, "\u5e73": 3641, "\u5e74": 3642, "\u5e76": 3643, "\u5e78": 3644, "\u5e79": 3645, "\u5e7a": 3646, "\u5e7b": 3647, "\u5e7c": 3648, "\u5e7d": 3649, "\u5e7e": 3650, "\u5e7f": 3651, "\u5e81": 3652, "\u5e83": 3653, "\u5e84": 3654, "\u5e86": 3655, "\u5e87": 3656, "\u5e8a": 3657, "\u5e8f": 3658, "\u5e90": 3659, "\u5e93": 3660, "\u5e94": 3661, "\u5e95": 3662, "\u5e97": 3663, "\u5e99": 3664, "\u5e9a": 3665, "\u5e9c": 3666, "\u5e9e": 3667, "\u5e9f": 3668, "\u5ea0": 3669, "\u5ea6": 3670, "\u5ea7": 3671, "\u5eab": 3672, "\u5ead": 3673, "\u5eb5": 3674, "\u5eb6": 3675, "\u5eb7": 3676, "\u5eb8": 3677, "\u5ebe": 3678, "\u5ec1": 3679, "\u5ec2": 3680, "\u5ec3": 3681, "\u5ec8": 3682, "\u5ec9": 3683, "\u5eca": 3684, "\u5ecd": 3685, "\u5ed3": 3686, "\u5ed6": 3687, "\u5eda": 3688, "\u5edf": 3689, "\u5ee0": 3690, "\u5ee2": 3691, "\u5ee3": 3692, "\u5eec": 3693, "\u5ef3": 3694, "\u5ef6": 3695, "\u5ef7": 3696, "\u5efa": 3697, "\u5efb": 3698, "\u5efc": 3699, "\u5eff": 3700, "\u5f00": 3701, "\u5f01": 3702, "\u5f02": 3703, "\u5f03": 3704, "\u5f04": 3705, "\u5f08": 3706, "\u5f0a": 3707, "\u5f0b": 3708, "\u5f0f": 3709, "\u5f10": 3710, "\u5f11": 3711, "\u5f12": 3712, "\u5f13": 3713, "\u5f14": 3714, "\u5f15": 3715, "\u5f17": 3716, "\u5f18": 3717, "\u5f1b": 3718, "\u5f1f": 3719, "\u5f20": 3720, "\u5f25": 3721, "\u5f26": 3722, "\u5f27": 3723, "\u5f29": 3724, "\u5f2d": 3725, "\u5f2f": 3726, "\u5f31": 3727, "\u5f35": 3728, "\u5f37": 3729, "\u5f39": 3730, "\u5f3a": 3731, "\u5f3c": 3732, "\u5f3e": 3733, "\u5f45": 3734, "\u5f48": 3735, "\u5f4a": 3736, "\u5f4c": 3737, "\u5f4e": 3738, "\u5f52": 3739, "\u5f53": 3740, "\u5f55": 3741, "\u5f57": 3742, "\u5f59": 3743, "\u5f5d": 3744, "\u5f62": 3745, "\u5f64": 3746, "\u5f65": 3747, "\u5f66": 3748, "\u5f67": 3749, "\u5f69": 3750, "\u5f6a": 3751, "\u5f6b": 3752, "\u5f6c": 3753, "\u5f6d": 3754, "\u5f70": 3755, "\u5f71": 3756, "\u5f77": 3757, "\u5f79": 3758, "\u5f7b": 3759, "\u5f7c": 3760, "\u5f7f": 3761, "\u5f80": 3762, "\u5f81": 3763, "\u5f84": 3764, "\u5f85": 3765, "\u5f87": 3766, "\u5f88": 3767, "\u5f8a": 3768, "\u5f8b": 3769, "\u5f8c": 3770, "\u5f90": 3771, "\u5f91": 3772, "\u5f92": 3773, "\u5f93": 3774, "\u5f97": 3775, "\u5f98": 3776, "\u5f99": 3777, "\u5f9e": 3778, "\u5fa0": 3779, "\u5fa1": 3780, "\u5fa8": 3781, "\u5fa9": 3782, "\u5faa": 3783, "\u5fad": 3784, "\u5fae": 3785, "\u5fb3": 3786, "\u5fb4": 3787, "\u5fb5": 3788, "\u5fb7": 3789, "\u5fb9": 3790, "\u5fbd": 3791, "\u5fc3": 3792, "\u5fc5": 3793, "\u5fc6": 3794, "\u5fcc": 3795, "\u5fcd": 3796, "\u5fcf": 3797, "\u5fd2": 3798, "\u5fd7": 3799, "\u5fd8": 3800, "\u5fd9": 3801, "\u5fdc": 3802, "\u5fe0": 3803, "\u5fe4": 3804, "\u5fe7": 3805, "\u5feb": 3806, "\u5ff1": 3807, "\u5ff5": 3808, "\u5ffb": 3809, "\u5ffd": 3810, "\u5fff": 3811, "\u6000": 3812, "\u6001": 3813, "\u600e": 3814, "\u6012": 3815, "\u6015": 3816, "\u6016": 3817, "\u601b": 3818, "\u601c": 3819, "\u601d": 3820, "\u6020": 3821, "\u6021": 3822, "\u6025": 3823, "\u6027": 3824, "\u6028": 3825, "\u602a": 3826, "\u602f": 3827, "\u603b": 3828, "\u6042": 3829, "\u6043": 3830, "\u6046": 3831, "\u604b": 3832, "\u604d": 3833, "\u6050": 3834, "\u6052": 3835, "\u6055": 3836, "\u6059": 3837, "\u605a": 3838, "\u6062": 3839, "\u6063": 3840, "\u6064": 3841, "\u6065": 3842, "\u6068": 3843, "\u6069": 3844, "\u606a": 3845, "\u606c": 3846, "\u606d": 3847, "\u606f": 3848, "\u6070": 3849, "\u6073": 3850, "\u6075": 3851, "\u6076": 3852, "\u607a": 3853, "\u607c": 3854, "\u607d": 3855, "\u607f": 3856, "\u6084": 3857, "\u6085": 3858, "\u6089": 3859, "\u608c": 3860, "\u608d": 3861, "\u6094": 3862, "\u6096": 3863, "\u609a": 3864, "\u609f": 3865, "\u60a0": 3866, "\u60a3": 3867, "\u60a6": 3868, "\u60a8": 3869, "\u60a9": 3870, "\u60aa": 3871, "\u60ac": 3872, "\u60af": 3873, "\u60b2": 3874, "\u60b6": 3875, "\u60b8": 3876, "\u60bc": 3877, "\u60c5": 3878, "\u60c7": 3879, "\u60ca": 3880, "\u60d1": 3881, "\u60d5": 3882, "\u60da": 3883, "\u60db": 3884, "\u60dc": 3885, "\u60df": 3886, "\u60e0": 3887, "\u60e1": 3888, "\u60e3": 3889, "\u60e7": 3890, "\u60e8": 3891, "\u60e9": 3892, "\u60ee": 3893, "\u60ef": 3894, "\u60f0": 3895, "\u60f1": 3896, "\u60f2": 3897, "\u60f3": 3898, "\u60f6": 3899, "\u60f9": 3900, "\u60fa": 3901, "\u6101": 3902, "\u6108": 3903, "\u6109": 3904, "\u610d": 3905, "\u610f": 3906, "\u6114": 3907, "\u6115": 3908, "\u611a": 3909, "\u611b": 3910, "\u611f": 3911, "\u6124": 3912, "\u6127": 3913, "\u612b": 3914, "\u6137": 3915, "\u613c": 3916, "\u613f": 3917, "\u6144": 3918, "\u6148": 3919, "\u614b": 3920, "\u614c": 3921, "\u614e": 3922, "\u6151": 3923, "\u6155": 3924, "\u6158": 3925, "\u615a": 3926, "\u615f": 3927, "\u6162": 3928, "\u6163": 3929, "\u6167": 3930, "\u6168": 3931, "\u616e": 3932, "\u6170": 3933, "\u6173": 3934, "\u6176": 3935, "\u6177": 3936, "\u617e": 3937, "\u6182": 3938, "\u618d": 3939, "\u618e": 3940, "\u6190": 3941, "\u6191": 3942, "\u619a": 3943, "\u61a4": 3944, "\u61a7": 3945, "\u61a8": 3946, "\u61a9": 3947, "\u61ab": 3948, "\u61ac": 3949, "\u61b2": 3950, "\u61b6": 3951, "\u61be": 3952, "\u61c2": 3953, "\u61c7": 3954, "\u61c8": 3955, "\u61c9": 3956, "\u61cb": 3957, "\u61d0": 3958, "\u61d2": 3959, "\u61e6": 3960, "\u61f2": 3961, "\u61f6": 3962, "\u61f7": 3963, "\u61f8": 3964, "\u61fa": 3965, "\u61fc": 3966, "\u61ff": 3967, "\u6200": 3968, "\u6208": 3969, "\u620a": 3970, "\u620c": 3971, "\u620d": 3972, "\u620e": 3973, "\u620f": 3974, "\u6210": 3975, "\u6211": 3976, "\u6212": 3977, "\u6216": 3978, "\u6218": 3979, "\u621a": 3980, "\u621b": 3981, "\u621f": 3982, "\u6221": 3983, "\u6226": 3984, "\u622a": 3985, "\u622e": 3986, "\u622f": 3987, "\u6230": 3988, "\u6231": 3989, "\u6232": 3990, "\u6233": 3991, "\u6234": 3992, "\u6236": 3993, "\u6237": 3994, "\u6238": 3995, "\u623b": 3996, "\u623e": 3997, "\u623f": 3998, "\u6240": 3999, "\u6241": 4000, "\u6247": 4001, "\u6248": 4002, "\u6249": 4003, "\u624b": 4004, "\u624d": 4005, "\u624e": 4006, "\u6251": 4007, "\u6252": 4008, "\u6253": 4009, "\u6254": 4010, "\u6255": 4011, "\u6258": 4012, "\u625b": 4013, "\u6263": 4014, "\u6267": 4015, "\u6269": 4016, "\u626b": 4017, "\u626c": 4018, "\u626d": 4019, "\u626e": 4020, "\u626f": 4021, "\u6270": 4022, "\u6271": 4023, "\u6273": 4024, "\u6276": 4025, "\u6279": 4026, "\u627c": 4027, "\u627e": 4028, "\u627f": 4029, "\u6280": 4030, "\u6284": 4031, "\u6289": 4032, "\u628a": 4033, "\u6291": 4034, "\u6292": 4035, "\u6293": 4036, "\u6295": 4037, "\u6296": 4038, "\u6297": 4039, "\u6298": 4040, "\u629a": 4041, "\u629b": 4042, "\u629c": 4043, "\u629e": 4044, "\u62a2": 4045, "\u62a4": 4046, "\u62a5": 4047, "\u62a8": 4048, "\u62ab": 4049, "\u62ac": 4050, "\u62b1": 4051, "\u62b5": 4052, "\u62b9": 4053, "\u62bc": 4054, "\u62bd": 4055, "\u62c2": 4056, "\u62c5": 4057, "\u62c6": 4058, "\u62c7": 4059, "\u62c9": 4060, "\u62cb": 4061, "\u62cc": 4062, "\u62cd": 4063, "\u62cf": 4064, "\u62d0": 4065, "\u62d2": 4066, "\u62d3": 4067, "\u62d4": 4068, "\u62d6": 4069, "\u62d7": 4070, "\u62d8": 4071, "\u62d9": 4072, "\u62da": 4073, "\u62db": 4074, "\u62dc": 4075, "\u62dd": 4076, "\u62df": 4077, "\u62e0": 4078, "\u62e1": 4079, "\u62e2": 4080, "\u62e3": 4081, "\u62e5": 4082, "\u62e6": 4083, "\u62e8": 4084, "\u62e9": 4085, "\u62ec": 4086, "\u62ed": 4087, "\u62ee": 4088, "\u62ef": 4089, "\u62f1": 4090, "\u62f3": 4091, "\u62f6": 4092, "\u62f7": 4093, "\u62fc": 4094, "\u62fe": 4095, "\u62ff": 4096, "\u6301": 4097, "\u6302": 4098, "\u6307": 4099, "\u6309": 4100, "\u6311": 4101, "\u6316": 4102, "\u6319": 4103, "\u631a": 4104, "\u631b": 4105, "\u631d": 4106, "\u631e": 4107, "\u631f": 4108, "\u6320": 4109, "\u6321": 4110, "\u6323": 4111, "\u6324": 4112, "\u6325": 4113, "\u6328": 4114, "\u632a": 4115, "\u632b": 4116, "\u632f": 4117, "\u6339": 4118, "\u633a": 4119, "\u633d": 4120, "\u633e": 4121, "\u633f": 4122, "\u6346": 4123, "\u6349": 4124, "\u634c": 4125, "\u634d": 4126, "\u634f": 4127, "\u6350": 4128, "\u6355": 4129, "\u6357": 4130, "\u635c": 4131, "\u635e": 4132, "\u635f": 4133, "\u6361": 4134, "\u6362": 4135, "\u6363": 4136, "\u6367": 4137, "\u6368": 4138, "\u6369": 4139, "\u636e": 4140, "\u6372": 4141, "\u6377": 4142, "\u637a": 4143, "\u637b": 4144, "\u6380": 4145, "\u6383": 4146, "\u6388": 4147, "\u6389": 4148, "\u638c": 4149, "\u638f": 4150, "\u6392": 4151, "\u6396": 4152, "\u6398": 4153, "\u6399": 4154, "\u639b": 4155, "\u639f": 4156, "\u63a0": 4157, "\u63a1": 4158, "\u63a2": 4159, "\u63a3": 4160, "\u63a5": 4161, "\u63a7": 4162, "\u63a8": 4163, "\u63a9": 4164, "\u63aa": 4165, "\u63ac": 4166, "\u63b2": 4167, "\u63b3": 4168, "\u63b4": 4169, "\u63b7": 4170, "\u63b8": 4171, "\u63ba": 4172, "\u63bb": 4173, "\u63be": 4174, "\u63c0": 4175, "\u63c3": 4176, "\u63c4": 4177, "\u63c6": 4178, "\u63c9": 4179, "\u63cf": 4180, "\u63d0": 4181, "\u63d2": 4182, "\u63d6": 4183, "\u63da": 4184, "\u63db": 4185, "\u63e1": 4186, "\u63e3": 4187, "\u63ea": 4188, "\u63ed": 4189, "\u63ee": 4190, "\u63f4": 4191, "\u63f6": 4192, "\u63fa": 4193, "\u63fd": 4194, "\u6401": 4195, "\u6405": 4196, "\u640d": 4197, "\u640f": 4198, "\u6416": 4199, "\u6417": 4200, "\u641c": 4201, "\u641e": 4202, "\u642c": 4203, "\u642d": 4204, "\u6436": 4205, "\u643a": 4206, "\u643e": 4207, "\u6442": 4208, "\u6444": 4209, "\u6446": 4210, "\u6447": 4211, "\u644a": 4212, "\u6452": 4213, "\u6454": 4214, "\u6458": 4215, "\u6460": 4216, "\u6467": 4217, "\u6469": 4218, "\u646f": 4219, "\u6478": 4220, "\u6479": 4221, "\u647a": 4222, "\u647b": 4223, "\u6483": 4224, "\u6487": 4225, "\u6488": 4226, "\u6490": 4227, "\u6491": 4228, "\u6492": 4229, "\u6493": 4230, "\u6495": 4231, "\u649e": 4232, "\u64a3": 4233, "\u64a4": 4234, "\u64a5": 4235, "\u64ab": 4236, "\u64ad": 4237, "\u64ae": 4238, "\u64b0": 4239, "\u64b2": 4240, "\u64b9": 4241, "\u64bb": 4242, "\u64bc": 4243, "\u64bf": 4244, "\u64c1": 4245, "\u64c2": 4246, "\u64c4": 4247, "\u64c5": 4248, "\u64c7": 4249, "\u64ca": 4250, "\u64cb": 4251, "\u64cd": 4252, "\u64ce": 4253, "\u64d2": 4254, "\u64d4": 4255, "\u64d8": 4256, "\u64da": 4257, "\u64e0": 4258, "\u64e2": 4259, "\u64e6": 4260, "\u64e7": 4261, "\u64ec": 4262, "\u64f1": 4263, "\u64f2": 4264, "\u64f4": 4265, "\u64fa": 4266, "\u64fe": 4267, "\u6500": 4268, "\u650f": 4269, "\u6514": 4270, "\u6518": 4271, "\u651c": 4272, "\u651d": 4273, "\u6523": 4274, "\u6524": 4275, "\u652a": 4276, "\u652b": 4277, "\u652c": 4278, "\u652f": 4279, "\u6536": 4280, "\u6538": 4281, "\u6539": 4282, "\u653b": 4283, "\u653e": 4284, "\u653f": 4285, "\u6545": 4286, "\u6548": 4287, "\u654c": 4288, "\u654d": 4289, "\u654e": 4290, "\u654f": 4291, "\u6551": 4292, "\u6555": 4293, "\u6556": 4294, "\u6557": 4295, "\u6558": 4296, "\u6559": 4297, "\u655b": 4298, "\u655d": 4299, "\u655e": 4300, "\u6562": 4301, "\u6563": 4302, "\u6566": 4303, "\u656c": 4304, "\u6570": 4305, "\u6572": 4306, "\u6574": 4307, "\u6575": 4308, "\u6577": 4309, "\u6578": 4310, "\u6582": 4311, "\u6583": 4312, "\u6587": 4313, "\u6589": 4314, "\u658b": 4315, "\u658c": 4316, "\u658e": 4317, "\u6590": 4318, "\u6591": 4319, "\u6597": 4320, "\u6599": 4321, "\u659b": 4322, "\u659c": 4323, "\u659f": 4324, "\u65a1": 4325, "\u65a4": 4326, "\u65a5": 4327, "\u65a7": 4328, "\u65a9": 4329, "\u65ac": 4330, "\u65ad": 4331, "\u65af": 4332, "\u65b0": 4333, "\u65b7": 4334, "\u65b9": 4335, "\u65bc": 4336, "\u65bd": 4337, "\u65c1": 4338, "\u65c3": 4339, "\u65c5": 4340, "\u65cb": 4341, "\u65cc": 4342, "\u65cf": 4343, "\u65d7": 4344, "\u65db": 4345, "\u65e0": 4346, "\u65e2": 4347, "\u65e5": 4348, "\u65e6": 4349, "\u65e7": 4350, "\u65e8": 4351, "\u65e9": 4352, "\u65ec": 4353, "\u65ed": 4354, "\u65f1": 4355, "\u65f6": 4356, "\u65f7": 4357, "\u65fa": 4358, "\u65fb": 4359, "\u65fc": 4360, "\u6600": 4361, "\u6602": 4362, "\u6606": 4363, "\u6607": 4364, "\u6609": 4365, "\u660a": 4366, "\u660c": 4367, "\u660e": 4368, "\u660f": 4369, "\u6613": 4370, "\u6614": 4371, "\u6615": 4372, "\u6619": 4373, "\u661f": 4374, "\u6620": 4375, "\u6625": 4376, "\u6627": 4377, "\u6628": 4378, "\u662d": 4379, "\u662f": 4380, "\u6631": 4381, "\u6634": 4382, "\u6635": 4383, "\u6636": 4384, "\u663c": 4385, "\u663e": 4386, "\u6641": 4387, "\u6642": 4388, "\u6643": 4389, "\u6649": 4390, "\u664b": 4391, "\u664f": 4392, "\u6652": 4393, "\u6653": 4394, "\u6654": 4395, "\u6655": 4396, "\u6656": 4397, "\u6657": 4398, "\u665a": 4399, "\u665d": 4400, "\u665e": 4401, "\u665f": 4402, "\u6664": 4403, "\u6666": 4404, "\u6668": 4405, "\u6669": 4406, "\u666e": 4407, "\u666f": 4408, "\u6670": 4409, "\u6674": 4410, "\u6676": 4411, "\u6677": 4412, "\u667a": 4413, "\u6681": 4414, "\u6682": 4415, "\u6684": 4416, "\u6687": 4417, "\u6688": 4418, "\u6689": 4419, "\u668e": 4420, "\u6690": 4421, "\u6691": 4422, "\u6696": 4423, "\u6697": 4424, "\u66a0": 4425, "\u66a2": 4426, "\u66a6": 4427, "\u66a7": 4428, "\u66a8": 4429, "\u66ab": 4430, "\u66ae": 4431, "\u66b1": 4432, "\u66b4": 4433, "\u66b9": 4434, "\u66c4": 4435, "\u66c6": 4436, "\u66c7": 4437, "\u66c9": 4438, "\u66d6": 4439, "\u66d9": 4440, "\u66dc": 4441, "\u66dd": 4442, "\u66e0": 4443, "\u66e6": 4444, "\u66ec": 4445, "\u66f0": 4446, "\u66f2": 4447, "\u66f3": 4448, "\u66f4": 4449, "\u66f7": 4450, "\u66f8": 4451, "\u66f9": 4452, "\u66fa": 4453, "\u66fc": 4454, "\u66fd": 4455, "\u66fe": 4456, "\u66ff": 4457, "\u6700": 4458, "\u6703": 4459, "\u6708": 4460, "\u6709": 4461, "\u670b": 4462, "\u670d": 4463, "\u6710": 4464, "\u6714": 4465, "\u6715": 4466, "\u6717": 4467, "\u671b": 4468, "\u671d": 4469, "\u671f": 4470, "\u6726": 4471, "\u6727": 4472, "\u6728": 4473, "\u672a": 4474, "\u672b": 4475, "\u672c": 4476, "\u672d": 4477, "\u672f": 4478, "\u6731": 4479, "\u6734": 4480, "\u6735": 4481, "\u673a": 4482, "\u673d": 4483, "\u6740": 4484, "\u6742": 4485, "\u6743": 4486, "\u6746": 4487, "\u6749": 4488, "\u674e": 4489, "\u674f": 4490, "\u6750": 4491, "\u6751": 4492, "\u6753": 4493, "\u6756": 4494, "\u675c": 4495, "\u675e": 4496, "\u675f": 4497, "\u6760": 4498, "\u6761": 4499, "\u6763": 4500, "\u6765": 4501, "\u6768": 4502, "\u676d": 4503, "\u676f": 4504, "\u6770": 4505, "\u6771": 4506, "\u6772": 4507, "\u6775": 4508, "\u6777": 4509, "\u677c": 4510, "\u677e": 4511, "\u677f": 4512, "\u6781": 4513, "\u6784": 4514, "\u6787": 4515, "\u6789": 4516, "\u678b": 4517, "\u6790": 4518, "\u6795": 4519, "\u6797": 4520, "\u679a": 4521, "\u679c": 4522, "\u679d": 4523, "\u67a0": 4524, "\u67a1": 4525, "\u67a2": 4526, "\u67a3": 4527, "\u67aa": 4528, "\u67ab": 4529, "\u67ad": 4530, "\u67af": 4531, "\u67b6": 4532, "\u67b7": 4533, "\u67c4": 4534, "\u67ca": 4535, "\u67cf": 4536, "\u67d0": 4537, "\u67d1": 4538, "\u67d3": 4539, "\u67d4": 4540, "\u67d8": 4541, "\u67da": 4542, "\u67dc": 4543, "\u67dd": 4544, "\u67de": 4545, "\u67e0": 4546, "\u67e5": 4547, "\u67e9": 4548, "\u67ec": 4549, "\u67ef": 4550, "\u67f1": 4551, "\u67f3": 4552, "\u67f4": 4553, "\u67f5": 4554, "\u67fb": 4555, "\u67fe": 4556, "\u67ff": 4557, "\u6803": 4558, "\u6804": 4559, "\u6805": 4560, "\u6807": 4561, "\u6808": 4562, "\u6809": 4563, "\u680b": 4564, "\u680e": 4565, "\u680f": 4566, "\u6811": 4567, "\u6813": 4568, "\u6816": 4569, "\u6817": 4570, "\u681e": 4571, "\u6821": 4572, "\u6822": 4573, "\u6829": 4574, "\u682a": 4575, "\u6831": 4576, "\u6837": 4577, "\u6838": 4578, "\u6839": 4579, "\u683c": 4580, "\u683d": 4581, "\u683e": 4582, "\u6840": 4583, "\u6841": 4584, "\u6842": 4585, "\u6843": 4586, "\u6845": 4587, "\u6846": 4588, "\u6848": 4589, "\u684c": 4590, "\u6850": 4591, "\u6851": 4592, "\u6853": 4593, "\u6854": 4594, "\u685c": 4595, "\u685d": 4596, "\u685f": 4597, "\u6862": 4598, "\u6863": 4599, "\u6865": 4600, "\u6866": 4601, "\u6867": 4602, "\u6868": 4603, "\u6869": 4604, "\u6876": 4605, "\u687f": 4606, "\u6881": 4607, "\u6885": 4608, "\u6893": 4609, "\u6897": 4610, "\u689d": 4611, "\u689f": 4612, "\u68a2": 4613, "\u68a6": 4614, "\u68a7": 4615, "\u68a8": 4616, "\u68ad": 4617, "\u68af": 4618, "\u68b0": 4619, "\u68b1": 4620, "\u68b3": 4621, "\u68b5": 4622, "\u68b6": 4623, "\u68c0": 4624, "\u68c4": 4625, "\u68c9": 4626, "\u68cb": 4627, "\u68cd": 4628, "\u68d2": 4629, "\u68d5": 4630, "\u68d7": 4631, "\u68d8": 4632, "\u68da": 4633, "\u68df": 4634, "\u68e0": 4635, "\u68e3": 4636, "\u68e7": 4637, "\u68e8": 4638, "\u68ee": 4639, "\u68f1": 4640, "\u68f2": 4641, "\u68f5": 4642, "\u68f9": 4643, "\u68fa": 4644, "\u68fb": 4645, "\u6900": 4646, "\u6905": 4647, "\u690b": 4648, "\u690d": 4649, "\u690e": 4650, "\u6912": 4651, "\u6919": 4652, "\u691c": 4653, "\u692d": 4654, "\u6930": 4655, "\u6934": 4656, "\u693d": 4657, "\u693f": 4658, "\u694a": 4659, "\u6953": 4660, "\u6954": 4661, "\u6955": 4662, "\u695a": 4663, "\u695e": 4664, "\u6960": 4665, "\u6961": 4666, "\u6962": 4667, "\u6963": 4668, "\u6968": 4669, "\u696b": 4670, "\u696d": 4671, "\u696f": 4672, "\u6975": 4673, "\u6977": 4674, "\u6978": 4675, "\u6979": 4676, "\u697c": 4677, "\u697d": 4678, "\u6982": 4679, "\u6984": 4680, "\u6986": 4681, "\u6988": 4682, "\u698a": 4683, "\u698e": 4684, "\u6994": 4685, "\u6995": 4686, "\u6998": 4687, "\u699b": 4688, "\u699c": 4689, "\u69a8": 4690, "\u69ad": 4691, "\u69ae": 4692, "\u69b4": 4693, "\u69b7": 4694, "\u69bb": 4695, "\u69c3": 4696, "\u69c7": 4697, "\u69cb": 4698, "\u69cc": 4699, "\u69cd": 4700, "\u69ce": 4701, "\u69d0": 4702, "\u69d3": 4703, "\u69d8": 4704, "\u69d9": 4705, "\u69db": 4706, "\u69df": 4707, "\u69ed": 4708, "\u69f3": 4709, "\u69fb": 4710, "\u69fd": 4711, "\u69ff": 4712, "\u6a01": 4713, "\u6a02": 4714, "\u6a05": 4715, "\u6a0a": 4716, "\u6a0b": 4717, "\u6a11": 4718, "\u6a13": 4719, "\u6a19": 4720, "\u6a1e": 4721, "\u6a1f": 4722, "\u6a21": 4723, "\u6a23": 4724, "\u6a29": 4725, "\u6a2a": 4726, "\u6a2b": 4727, "\u6a31": 4728, "\u6a35": 4729, "\u6a38": 4730, "\u6a39": 4731, "\u6a3a": 4732, "\u6a3d": 4733, "\u6a44": 4734, "\u6a47": 4735, "\u6a48": 4736, "\u6a4b": 4737, "\u6a50": 4738, "\u6a58": 4739, "\u6a59": 4740, "\u6a5f": 4741, "\u6a61": 4742, "\u6a62": 4743, "\u6a6b": 4744, "\u6a7f": 4745, "\u6a80": 4746, "\u6a84": 4747, "\u6a8e": 4748, "\u6a90": 4749, "\u6a94": 4750, "\u6a97": 4751, "\u6a9c": 4752, "\u6aa2": 4753, "\u6aac": 4754, "\u6aaf": 4755, "\u6ab3": 4756, "\u6ab8": 4757, "\u6abb": 4758, "\u6ac2": 4759, "\u6ac3": 4760, "\u6ad3": 4761, "\u6ada": 4762, "\u6adb": 4763, "\u6adf": 4764, "\u6ae5": 4765, "\u6afb": 4766, "\u6b04": 4767, "\u6b05": 4768, "\u6b0a": 4769, "\u6b12": 4770, "\u6b16": 4771, "\u6b20": 4772, "\u6b21": 4773, "\u6b22": 4774, "\u6b23": 4775, "\u6b27": 4776, "\u6b32": 4777, "\u6b3a": 4778, "\u6b3d": 4779, "\u6b3e": 4780, "\u6b46": 4781, "\u6b47": 4782, "\u6b49": 4783, "\u6b4c": 4784, "\u6b4e": 4785, "\u6b50": 4786, "\u6b53": 4787, "\u6b59": 4788, "\u6b61": 4789, "\u6b62": 4790, "\u6b63": 4791, "\u6b64": 4792, "\u6b65": 4793, "\u6b66": 4794, "\u6b67": 4795, "\u6b69": 4796, "\u6b6a": 4797, "\u6b6f": 4798, "\u6b72": 4799, "\u6b73": 4800, "\u6b74": 4801, "\u6b77": 4802, "\u6b78": 4803, "\u6b79": 4804, "\u6b7b": 4805, "\u6b7c": 4806, "\u6b7f": 4807, "\u6b81": 4808, "\u6b83": 4809, "\u6b86": 4810, "\u6b87": 4811, "\u6b89": 4812, "\u6b8a": 4813, "\u6b8b": 4814, "\u6b96": 4815, "\u6b98": 4816, "\u6ba1": 4817, "\u6ba4": 4818, "\u6bad": 4819, "\u6baf": 4820, "\u6bb2": 4821, "\u6bb4": 4822, "\u6bb5": 4823, "\u6bb7": 4824, "\u6bba": 4825, "\u6bbb": 4826, "\u6bbc": 4827, "\u6bbf": 4828, "\u6bc0": 4829, "\u6bc1": 4830, "\u6bc5": 4831, "\u6bc6": 4832, "\u6bcb": 4833, "\u6bcd": 4834, "\u6bce": 4835, "\u6bcf": 4836, "\u6bd2": 4837, "\u6bd3": 4838, "\u6bd4": 4839, "\u6bd5": 4840, "\u6bd7": 4841, "\u6bd8": 4842, "\u6bd9": 4843, "\u6bdb": 4844, "\u6beb": 4845, "\u6bec": 4846, "\u6bef": 4847, "\u6c08": 4848, "\u6c0f": 4849, "\u6c10": 4850, "\u6c11": 4851, "\u6c13": 4852, "\u6c14": 4853, "\u6c17": 4854, "\u6c19": 4855, "\u6c1b": 4856, "\u6c1f": 4857, "\u6c22": 4858, "\u6c23": 4859, "\u6c26": 4860, "\u6c27": 4861, "\u6c28": 4862, "\u6c2b": 4863, "\u6c2e": 4864, "\u6c2f": 4865, "\u6c30": 4866, "\u6c34": 4867, "\u6c35": 4868, "\u6c37": 4869, "\u6c38": 4870, "\u6c39": 4871, "\u6c3e": 4872, "\u6c40": 4873, "\u6c41": 4874, "\u6c42": 4875, "\u6c47": 4876, "\u6c49": 4877, "\u6c4e": 4878, "\u6c50": 4879, "\u6c55": 4880, "\u6c57": 4881, "\u6c59": 4882, "\u6c5a": 4883, "\u6c5b": 4884, "\u6c5c": 4885, "\u6c5d": 4886, "\u6c5e": 4887, "\u6c5f": 4888, "\u6c60": 4889, "\u6c61": 4890, "\u6c64": 4891, "\u6c68": 4892, "\u6c6a": 4893, "\u6c70": 4894, "\u6c72": 4895, "\u6c74": 4896, "\u6c76": 4897, "\u6c7a": 4898, "\u6c7d": 4899, "\u6c7e": 4900, "\u6c81": 4901, "\u6c82": 4902, "\u6c83": 4903, "\u6c85": 4904, "\u6c86": 4905, "\u6c88": 4906, "\u6c89": 4907, "\u6c8c": 4908, "\u6c90": 4909, "\u6c92": 4910, "\u6c93": 4911, "\u6c94": 4912, "\u6c96": 4913, "\u6c99": 4914, "\u6c9b": 4915, "\u6c9f": 4916, "\u6ca1": 4917, "\u6ca2": 4918, "\u6ca5": 4919, "\u6ca6": 4920, "\u6ca7": 4921, "\u6caa": 4922, "\u6cab": 4923, "\u6cad": 4924, "\u6cae": 4925, "\u6cb1": 4926, "\u6cb3": 4927, "\u6cb8": 4928, "\u6cb9": 4929, "\u6cbb": 4930, "\u6cbc": 4931, "\u6cbd": 4932, "\u6cbe": 4933, "\u6cbf": 4934, "\u6cc1": 4935, "\u6cc4": 4936, "\u6cc9": 4937, "\u6cca": 4938, "\u6ccc": 4939, "\u6cd3": 4940, "\u6cd5": 4941, "\u6cd7": 4942, "\u6cdb": 4943, "\u6ce0": 4944, "\u6ce1": 4945, "\u6ce2": 4946, "\u6ce3": 4947, "\u6ce5": 4948, "\u6ce8": 4949, "\u6cea": 4950, "\u6cee": 4951, "\u6cf0": 4952, "\u6cf3": 4953, "\u6cf5": 4954, "\u6cf7": 4955, "\u6cf8": 4956, "\u6cfb": 4957, "\u6cfc": 4958, "\u6cfd": 4959, "\u6cfe": 4960, "\u6d01": 4961, "\u6d04": 4962, "\u6d0b": 4963, "\u6d12": 4964, "\u6d17": 4965, "\u6d19": 4966, "\u6d1b": 4967, "\u6d1e": 4968, "\u6d25": 4969, "\u6d29": 4970, "\u6d2a": 4971, "\u6d2e": 4972, "\u6d31": 4973, "\u6d32": 4974, "\u6d35": 4975, "\u6d38": 4976, "\u6d39": 4977, "\u6d3b": 4978, "\u6d3c": 4979, "\u6d3d": 4980, "\u6d3e": 4981, "\u6d41": 4982, "\u6d44": 4983, "\u6d45": 4984, "\u6d46": 4985, "\u6d47": 4986, "\u6d4a": 4987, "\u6d4b": 4988, "\u6d4e": 4989, "\u6d4f": 4990, "\u6d51": 4991, "\u6d52": 4992, "\u6d53": 4993, "\u6d54": 4994, "\u6d59": 4995, "\u6d5a": 4996, "\u6d5c": 4997, "\u6d63": 4998, "\u6d66": 4999, "\u6d69": 5000, "\u6d6a": 5001, "\u6d6c": 5002, "\u6d6e": 5003, "\u6d74": 5004, "\u6d77": 5005, "\u6d78": 5006, "\u6d82": 5007, "\u6d85": 5008, "\u6d87": 5009, "\u6d88": 5010, "\u6d89": 5011, "\u6d8c": 5012, "\u6d8e": 5013, "\u6d93": 5014, "\u6d95": 5015, "\u6d99": 5016, "\u6d9b": 5017, "\u6d9d": 5018, "\u6d9f": 5019, "\u6da1": 5020, "\u6da4": 5021, "\u6da6": 5022, "\u6da7": 5023, "\u6da8": 5024, "\u6da9": 5025, "\u6daa": 5026, "\u6daf": 5027, "\u6db2": 5028, "\u6db5": 5029, "\u6db8": 5030, "\u6dbc": 5031, "\u6dbf": 5032, "\u6dc0": 5033, "\u6dc4": 5034, "\u6dc5": 5035, "\u6dc6": 5036, "\u6dc7": 5037, "\u6dcb": 5038, "\u6dd1": 5039, "\u6dd6": 5040, "\u6dd8": 5041, "\u6dda": 5042, "\u6ddd": 5043, "\u6dde": 5044, "\u6de1": 5045, "\u6de4": 5046, "\u6de6": 5047, "\u6de8": 5048, "\u6dea": 5049, "\u6deb": 5050, "\u6dee": 5051, "\u6df1": 5052, "\u6df3": 5053, "\u6df5": 5054, "\u6df7": 5055, "\u6df8": 5056, "\u6df9": 5057, "\u6dfa": 5058, "\u6dfb": 5059, "\u6dfc": 5060, "\u6e05": 5061, "\u6e07": 5062, "\u6e08": 5063, "\u6e09": 5064, "\u6e0a": 5065, "\u6e0b": 5066, "\u6e0d": 5067, "\u6e0e": 5068, "\u6e10": 5069, "\u6e13": 5070, "\u6e14": 5071, "\u6e15": 5072, "\u6e17": 5073, "\u6e1a": 5074, "\u6e1b": 5075, "\u6e1d": 5076, "\u6e20": 5077, "\u6e21": 5078, "\u6e23": 5079, "\u6e24": 5080, "\u6e25": 5081, "\u6e26": 5082, "\u6e29": 5083, "\u6e2c": 5084, "\u6e2d": 5085, "\u6e2f": 5086, "\u6e32": 5087, "\u6e34": 5088, "\u6e38": 5089, "\u6e3a": 5090, "\u6e3e": 5091, "\u6e43": 5092, "\u6e44": 5093, "\u6e4a": 5094, "\u6e4d": 5095, "\u6e56": 5096, "\u6e58": 5097, "\u6e5b": 5098, "\u6e5f": 5099, "\u6e67": 5100, "\u6e6e": 5101, "\u6e6f": 5102, "\u6e73": 5103, "\u6e7e": 5104, "\u6e7f": 5105, "\u6e80": 5106, "\u6e83": 5107, "\u6e85": 5108, "\u6e89": 5109, "\u6e90": 5110, "\u6e96": 5111, "\u6e9c": 5112, "\u6e9d": 5113, "\u6e9f": 5114, "\u6ea2": 5115, "\u6ea5": 5116, "\u6ea7": 5117, "\u6eaa": 5118, "\u6eab": 5119, "\u6eaf": 5120, "\u6eb4": 5121, "\u6eb6": 5122, "\u6eba": 5123, "\u6ec1": 5124, "\u6ec2": 5125, "\u6ec4": 5126, "\u6ec5": 5127, "\u6ec7": 5128, "\u6ec9": 5129, "\u6ecb": 5130, "\u6ecc": 5131, "\u6ece": 5132, "\u6ed1": 5133, "\u6ed3": 5134, "\u6ed4": 5135, "\u6ed5": 5136, "\u6ed8": 5137, "\u6ed9": 5138, "\u6eda": 5139, "\u6edd": 5140, "\u6ede": 5141, "\u6ee1": 5142, "\u6ee4": 5143, "\u6ee5": 5144, "\u6ee6": 5145, "\u6ee8": 5146, "\u6ee9": 5147, "\u6eec": 5148, "\u6eef": 5149, "\u6ef2": 5150, "\u6ef4": 5151, "\u6ef8": 5152, "\u6efe": 5153, "\u6eff": 5154, "\u6f01": 5155, "\u6f02": 5156, "\u6f06": 5157, "\u6f09": 5158, "\u6f0f": 5159, "\u6f11": 5160, "\u6f13": 5161, "\u6f14": 5162, "\u6f15": 5163, "\u6f20": 5164, "\u6f22": 5165, "\u6f23": 5166, "\u6f29": 5167, "\u6f2a": 5168, "\u6f2b": 5169, "\u6f2c": 5170, "\u6f2f": 5171, "\u6f31": 5172, "\u6f32": 5173, "\u6f33": 5174, "\u6f38": 5175, "\u6f3e": 5176, "\u6f3f": 5177, "\u6f41": 5178, "\u6f47": 5179, "\u6f4d": 5180, "\u6f51": 5181, "\u6f54": 5182, "\u6f58": 5183, "\u6f5b": 5184, "\u6f5c": 5185, "\u6f5e": 5186, "\u6f5f": 5187, "\u6f62": 5188, "\u6f64": 5189, "\u6f66": 5190, "\u6f6d": 5191, "\u6f6e": 5192, "\u6f6f": 5193, "\u6f70": 5194, "\u6f7c": 5195, "\u6f80": 5196, "\u6f81": 5197, "\u6f82": 5198, "\u6f84": 5199, "\u6f86": 5200, "\u6f88": 5201, "\u6f8d": 5202, "\u6f8e": 5203, "\u6f97": 5204, "\u6f9c": 5205, "\u6fa1": 5206, "\u6fa4": 5207, "\u6fa7": 5208, "\u6faa": 5209, "\u6fb1": 5210, "\u6fb3": 5211, "\u6fb9": 5212, "\u6fc0": 5213, "\u6fc1": 5214, "\u6fc2": 5215, "\u6fc3": 5216, "\u6fd1": 5217, "\u6fd2": 5218, "\u6fd5": 5219, "\u6fdb": 5220, "\u6fdf": 5221, "\u6fe0": 5222, "\u6fe1": 5223, "\u6fe4": 5224, "\u6feb": 5225, "\u6fec": 5226, "\u6fee": 5227, "\u6fef": 5228, "\u6ff0": 5229, "\u6ff1": 5230, "\u6ffa": 5231, "\u6ffe": 5232, "\u7006": 5233, "\u7009": 5234, "\u700b": 5235, "\u700f": 5236, "\u7011": 5237, "\u7015": 5238, "\u7018": 5239, "\u701a": 5240, "\u701b": 5241, "\u701d": 5242, "\u701e": 5243, "\u701f": 5244, "\u7027": 5245, "\u7028": 5246, "\u702c": 5247, "\u703e": 5248, "\u704c": 5249, "\u704f": 5250, "\u7051": 5251, "\u7058": 5252, "\u705d": 5253, "\u705e": 5254, "\u7063": 5255, "\u7064": 5256, "\u706b": 5257, "\u706d": 5258, "\u706f": 5259, "\u7070": 5260, "\u7075": 5261, "\u7076": 5262, "\u7078": 5263, "\u707c": 5264, "\u707d": 5265, "\u707e": 5266, "\u707f": 5267, "\u7080": 5268, "\u7085": 5269, "\u7089": 5270, "\u708a": 5271, "\u708e": 5272, "\u7092": 5273, "\u7094": 5274, "\u7098": 5275, "\u7099": 5276, "\u709c": 5277, "\u70ab": 5278, "\u70ac": 5279, "\u70ad": 5280, "\u70ae": 5281, "\u70af": 5282, "\u70b1": 5283, "\u70b3": 5284, "\u70b8": 5285, "\u70b9": 5286, "\u70ba": 5287, "\u70bc": 5288, "\u70bd": 5289, "\u70c1": 5290, "\u70c2": 5291, "\u70c3": 5292, "\u70c8": 5293, "\u70cf": 5294, "\u70d8": 5295, "\u70d9": 5296, "\u70db": 5297, "\u70df": 5298, "\u70e4": 5299, "\u70e6": 5300, "\u70e7": 5301, "\u70e8": 5302, "\u70eb": 5303, "\u70ed": 5304, "\u70ef": 5305, "\u70f4": 5306, "\u70f7": 5307, "\u70f9": 5308, "\u70fd": 5309, "\u7109": 5310, "\u710a": 5311, "\u7114": 5312, "\u7115": 5313, "\u7118": 5314, "\u7119": 5315, "\u711a": 5316, "\u711c": 5317, "\u7121": 5318, "\u7126": 5319, "\u712f": 5320, "\u7130": 5321, "\u7136": 5322, "\u713c": 5323, "\u7147": 5324, "\u7149": 5325, "\u714a": 5326, "\u714c": 5327, "\u714e": 5328, "\u7152": 5329, "\u7155": 5330, "\u7159": 5331, "\u715c": 5332, "\u715e": 5333, "\u7164": 5334, "\u7165": 5335, "\u7166": 5336, "\u7167": 5337, "\u7169": 5338, "\u716c": 5339, "\u716e": 5340, "\u7172": 5341, "\u717d": 5342, "\u7184": 5343, "\u718a": 5344, "\u718f": 5345, "\u7192": 5346, "\u7194": 5347, "\u7199": 5348, "\u719f": 5349, "\u71ac": 5350, "\u71b1": 5351, "\u71b5": 5352, "\u71b9": 5353, "\u71be": 5354, "\u71c1": 5355, "\u71c3": 5356, "\u71c8": 5357, "\u71ca": 5358, "\u71ce": 5359, "\u71d0": 5360, "\u71d2": 5361, "\u71d5": 5362, "\u71d9": 5363, "\u71df": 5364, "\u71e5": 5365, "\u71e6": 5366, "\u71e7": 5367, "\u71ed": 5368, "\u71ee": 5369, "\u71fb": 5370, "\u71fc": 5371, "\u71fe": 5372, "\u71ff": 5373, "\u7206": 5374, "\u720d": 5375, "\u7210": 5376, "\u721b": 5377, "\u7228": 5378, "\u722a": 5379, "\u722c": 5380, "\u722d": 5381, "\u7230": 5382, "\u7231": 5383, "\u7232": 5384, "\u7235": 5385, "\u7236": 5386, "\u7237": 5387, "\u7238": 5388, "\u7239": 5389, "\u723a": 5390, "\u723b": 5391, "\u723d": 5392, "\u723e": 5393, "\u7246": 5394, "\u7247": 5395, "\u7248": 5396, "\u724c": 5397, "\u7252": 5398, "\u7259": 5399, "\u725b": 5400, "\u725d": 5401, "\u725f": 5402, "\u7260": 5403, "\u7261": 5404, "\u7262": 5405, "\u7267": 5406, "\u7269": 5407, "\u7272": 5408, "\u7275": 5409, "\u7279": 5410, "\u727a": 5411, "\u727d": 5412, "\u7280": 5413, "\u7281": 5414, "\u728d": 5415, "\u729b": 5416, "\u72a0": 5417, "\u72a2": 5418, "\u72a7": 5419, "\u72ac": 5420, "\u72af": 5421, "\u72b6": 5422, "\u72b9": 5423, "\u72c0": 5424, "\u72c2": 5425, "\u72c4": 5426, "\u72d0": 5427, "\u72d2": 5428, "\u72d7": 5429, "\u72d9": 5430, "\u72db": 5431, "\u72e0": 5432, "\u72e1": 5433, "\u72e9": 5434, "\u72ec": 5435, "\u72ed": 5436, "\u72ee": 5437, "\u72f1": 5438, "\u72f8": 5439, "\u72f9": 5440, "\u72fc": 5441, "\u730e": 5442, "\u7315": 5443, "\u7316": 5444, "\u7317": 5445, "\u731b": 5446, "\u731c": 5447, "\u731d": 5448, "\u731f": 5449, "\u7325": 5450, "\u7329": 5451, "\u732a": 5452, "\u732b": 5453, "\u732e": 5454, "\u7334": 5455, "\u7336": 5456, "\u7337": 5457, "\u733e": 5458, "\u733f": 5459, "\u7344": 5460, "\u7345": 5461, "\u734e": 5462, "\u734f": 5463, "\u7350": 5464, "\u7360": 5465, "\u7363": 5466, "\u7368": 5467, "\u7372": 5468, "\u7375": 5469, "\u7378": 5470, "\u737a": 5471, "\u737b": 5472, "\u737c": 5473, "\u737e": 5474, "\u7384": 5475, "\u7387": 5476, "\u7389": 5477, "\u738b": 5478, "\u7396": 5479, "\u739b": 5480, "\u739f": 5481, "\u73a0": 5482, "\u73a5": 5483, "\u73a9": 5484, "\u73ab": 5485, "\u73ae": 5486, "\u73af": 5487, "\u73b0": 5488, "\u73b2": 5489, "\u73b3": 5490, "\u73ba": 5491, "\u73bb": 5492, "\u73c0": 5493, "\u73c2": 5494, "\u73c5": 5495, "\u73c8": 5496, "\u73c9": 5497, "\u73ca": 5498, "\u73cd": 5499, "\u73cf": 5500, "\u73d1": 5501, "\u73d9": 5502, "\u73de": 5503, "\u73e0": 5504, "\u73e3": 5505, "\u73e5": 5506, "\u73e9": 5507, "\u73ea": 5508, "\u73ed": 5509, "\u73ee": 5510, "\u73f2": 5511, "\u73fe": 5512, "\u7403": 5513, "\u7405": 5514, "\u7406": 5515, "\u7407": 5516, "\u7409": 5517, "\u740a": 5518, "\u740f": 5519, "\u7410": 5520, "\u741a": 5521, "\u741b": 5522, "\u7422": 5523, "\u7425": 5524, "\u7426": 5525, "\u7428": 5526, "\u742a": 5527, "\u742c": 5528, "\u742e": 5529, "\u7430": 5530, "\u7432": 5531, "\u7433": 5532, "\u7434": 5533, "\u7435": 5534, "\u7436": 5535, "\u743c": 5536, "\u743f": 5537, "\u7440": 5538, "\u7441": 5539, "\u7444": 5540, "\u744b": 5541, "\u7455": 5542, "\u7457": 5543, "\u7459": 5544, "\u745a": 5545, "\u745b": 5546, "\u745c": 5547, "\u745e": 5548, "\u745f": 5549, "\u7460": 5550, "\u7463": 5551, "\u7464": 5552, "\u7469": 5553, "\u746a": 5554, "\u746d": 5555, "\u746f": 5556, "\u7470": 5557, "\u7473": 5558, "\u7476": 5559, "\u747e": 5560, "\u7480": 5561, "\u7481": 5562, "\u7483": 5563, "\u7487": 5564, "\u7489": 5565, "\u748b": 5566, "\u7490": 5567, "\u7498": 5568, "\u749c": 5569, "\u749e": 5570, "\u749f": 5571, "\u74a0": 5572, "\u74a7": 5573, "\u74a8": 5574, "\u74a9": 5575, "\u74b0": 5576, "\u74bd": 5577, "\u74bf": 5578, "\u74ca": 5579, "\u74cc": 5580, "\u74cf": 5581, "\u74d2": 5582, "\u74d8": 5583, "\u74da": 5584, "\u74dc": 5585, "\u74e2": 5586, "\u74e3": 5587, "\u74e6": 5588, "\u74ee": 5589, "\u74ef": 5590, "\u74f6": 5591, "\u74f7": 5592, "\u7504": 5593, "\u750c": 5594, "\u7511": 5595, "\u7515": 5596, "\u7518": 5597, "\u751a": 5598, "\u751c": 5599, "\u751f": 5600, "\u7522": 5601, "\u7523": 5602, "\u7525": 5603, "\u7526": 5604, "\u7528": 5605, "\u7529": 5606, "\u752b": 5607, "\u752c": 5608, "\u752f": 5609, "\u7530": 5610, "\u7531": 5611, "\u7532": 5612, "\u7533": 5613, "\u7535": 5614, "\u7537": 5615, "\u7538": 5616, "\u753a": 5617, "\u753b": 5618, "\u7545": 5619, "\u7548": 5620, "\u754c": 5621, "\u754f": 5622, "\u7551": 5623, "\u7554": 5624, "\u7559": 5625, "\u755c": 5626, "\u755d": 5627, "\u7560": 5628, "\u7562": 5629, "\u7565": 5630, "\u7566": 5631, "\u756a": 5632, "\u756b": 5633, "\u7570": 5634, "\u7572": 5635, "\u7573": 5636, "\u7574": 5637, "\u7575": 5638, "\u7576": 5639, "\u7577": 5640, "\u7578": 5641, "\u757f": 5642, "\u7583": 5643, "\u7586": 5644, "\u7587": 5645, "\u758a": 5646, "\u758b": 5647, "\u758e": 5648, "\u758f": 5649, "\u7591": 5650, "\u7597": 5651, "\u759a": 5652, "\u759f": 5653, "\u75a3": 5654, "\u75a4": 5655, "\u75ab": 5656, "\u75ae": 5657, "\u75af": 5658, "\u75b1": 5659, "\u75b2": 5660, "\u75b5": 5661, "\u75b8": 5662, "\u75b9": 5663, "\u75bc": 5664, "\u75bd": 5665, "\u75be": 5666, "\u75c5": 5667, "\u75c7": 5668, "\u75ca": 5669, "\u75cd": 5670, "\u75d2": 5671, "\u75d4": 5672, "\u75d5": 5673, "\u75d8": 5674, "\u75d9": 5675, "\u75db": 5676, "\u75de": 5677, "\u75e2": 5678, "\u75e3": 5679, "\u75e9": 5680, "\u75ea": 5681, "\u75f0": 5682, "\u75f4": 5683, "\u75f9": 5684, "\u75fa": 5685, "\u7600": 5686, "\u760b": 5687, "\u760d": 5688, "\u7613": 5689, "\u761f": 5690, "\u7620": 5691, "\u7621": 5692, "\u7624": 5693, "\u7626": 5694, "\u7627": 5695, "\u762b": 5696, "\u7634": 5697, "\u763e": 5698, "\u7642": 5699, "\u7647": 5700, "\u764c": 5701, "\u7652": 5702, "\u7656": 5703, "\u7661": 5704, "\u7662": 5705, "\u766b": 5706, "\u766c": 5707, "\u766e": 5708, "\u7671": 5709, "\u7672": 5710, "\u7678": 5711, "\u767a": 5712, "\u767b": 5713, "\u767c": 5714, "\u767d": 5715, "\u767e": 5716, "\u7682": 5717, "\u7684": 5718, "\u7686": 5719, "\u7687": 5720, "\u7688": 5721, "\u768b": 5722, "\u768e": 5723, "\u7690": 5724, "\u7693": 5725, "\u7696": 5726, "\u769d": 5727, "\u76ae": 5728, "\u76b1": 5729, "\u76ba": 5730, "\u76bf": 5731, "\u76c2": 5732, "\u76c3": 5733, "\u76c6": 5734, "\u76c8": 5735, "\u76ca": 5736, "\u76ce": 5737, "\u76cf": 5738, "\u76d0": 5739, "\u76d1": 5740, "\u76d2": 5741, "\u76d4": 5742, "\u76d6": 5743, "\u76d7": 5744, "\u76d8": 5745, "\u76db": 5746, "\u76dc": 5747, "\u76de": 5748, "\u76df": 5749, "\u76e1": 5750, "\u76e3": 5751, "\u76e4": 5752, "\u76e7": 5753, "\u76ea": 5754, "\u76ee": 5755, "\u76ef": 5756, "\u76f1": 5757, "\u76f2": 5758, "\u76f4": 5759, "\u76f8": 5760, "\u76fc": 5761, "\u76fe": 5762, "\u7701": 5763, "\u7709": 5764, "\u770b": 5765, "\u770c": 5766, "\u7719": 5767, "\u771e": 5768, "\u771f": 5769, "\u7720": 5770, "\u7729": 5771, "\u7736": 5772, "\u7737": 5773, "\u7738": 5774, "\u773a": 5775, "\u773c": 5776, "\u773e": 5777, "\u7740": 5778, "\u7747": 5779, "\u7750": 5780, "\u775b": 5781, "\u775e": 5782, "\u7761": 5783, "\u7762": 5784, "\u7763": 5785, "\u7766": 5786, "\u7768": 5787, "\u776a": 5788, "\u776b": 5789, "\u7779": 5790, "\u777d": 5791, "\u777e": 5792, "\u777f": 5793, "\u7784": 5794, "\u778b": 5795, "\u778e": 5796, "\u7791": 5797, "\u7792": 5798, "\u779e": 5799, "\u77a5": 5800, "\u77a7": 5801, "\u77a9": 5802, "\u77aa": 5803, "\u77ac": 5804, "\u77ad": 5805, "\u77b0": 5806, "\u77b3": 5807, "\u77bb": 5808, "\u77bc": 5809, "\u77bf": 5810, "\u77d7": 5811, "\u77da": 5812, "\u77db": 5813, "\u77dc": 5814, "\u77e2": 5815, "\u77e3": 5816, "\u77e5": 5817, "\u77e7": 5818, "\u77e9": 5819, "\u77eb": 5820, "\u77ed": 5821, "\u77ee": 5822, "\u77ef": 5823, "\u77f3": 5824, "\u77f6": 5825, "\u77fd": 5826, "\u77ff": 5827, "\u7801": 5828, "\u7802": 5829, "\u780c": 5830, "\u780d": 5831, "\u7814": 5832, "\u7815": 5833, "\u7816": 5834, "\u781a": 5835, "\u7825": 5836, "\u7826": 5837, "\u7827": 5838, "\u7832": 5839, "\u7834": 5840, "\u7837": 5841, "\u7838": 5842, "\u783a": 5843, "\u783e": 5844, "\u7840": 5845, "\u7845": 5846, "\u784f": 5847, "\u7852": 5848, "\u7855": 5849, "\u785d": 5850, "\u7864": 5851, "\u786b": 5852, "\u786c": 5853, "\u786e": 5854, "\u786f": 5855, "\u787c": 5856, "\u7881": 5857, "\u7887": 5858, "\u7889": 5859, "\u788c": 5860, "\u788d": 5861, "\u788e": 5862, "\u7891": 5863, "\u7893": 5864, "\u7895": 5865, "\u7897": 5866, "\u7898": 5867, "\u789a": 5868, "\u789f": 5869, "\u78a3": 5870, "\u78a7": 5871, "\u78a9": 5872, "\u78b0": 5873, "\u78b1": 5874, "\u78b3": 5875, "\u78ba": 5876, "\u78bc": 5877, "\u78be": 5878, "\u78c1": 5879, "\u78c5": 5880, "\u78ca": 5881, "\u78cb": 5882, "\u78d0": 5883, "\u78d4": 5884, "\u78da": 5885, "\u78e1": 5886, "\u78e8": 5887, "\u78ef": 5888, "\u78f7": 5889, "\u78fa": 5890, "\u7901": 5891, "\u790e": 5892, "\u7919": 5893, "\u7926": 5894, "\u792a": 5895, "\u792b": 5896, "\u792c": 5897, "\u793a": 5898, "\u793c": 5899, "\u793e": 5900, "\u7940": 5901, "\u7941": 5902, "\u7942": 5903, "\u7947": 5904, "\u7948": 5905, "\u7949": 5906, "\u7950": 5907, "\u7953": 5908, "\u7955": 5909, "\u7956": 5910, "\u7957": 5911, "\u795a": 5912, "\u795c": 5913, "\u795d": 5914, "\u795e": 5915, "\u795f": 5916, "\u7960": 5917, "\u7962": 5918, "\u7965": 5919, "\u7968": 5920, "\u796d": 5921, "\u796f": 5922, "\u7977": 5923, "\u7978": 5924, "\u797a": 5925, "\u797f": 5926, "\u7980": 5927, "\u7981": 5928, "\u7984": 5929, "\u7985": 5930, "\u798d": 5931, "\u798e": 5932, "\u798f": 5933, "\u7995": 5934, "\u799b": 5935, "\u79a6": 5936, "\u79a7": 5937, "\u79aa": 5938, "\u79ae": 5939, "\u79b0": 5940, "\u79b1": 5941, "\u79b9": 5942, "\u79ba": 5943, "\u79bb": 5944, "\u79bd": 5945, "\u79be": 5946, "\u79bf": 5947, "\u79c0": 5948, "\u79c1": 5949, "\u79c3": 5950, "\u79c9": 5951, "\u79cb": 5952, "\u79cd": 5953, "\u79d1": 5954, "\u79d2": 5955, "\u79d8": 5956, "\u79df": 5957, "\u79e3": 5958, "\u79e4": 5959, "\u79e6": 5960, "\u79e7": 5961, "\u79e9": 5962, "\u79ef": 5963, "\u79f0": 5964, "\u79fb": 5965, "\u79fd": 5966, "\u7a00": 5967, "\u7a05": 5968, "\u7a0b": 5969, "\u7a0d": 5970, "\u7a0e": 5971, "\u7a14": 5972, "\u7a17": 5973, "\u7a19": 5974, "\u7a1a": 5975, "\u7a1c": 5976, "\u7a1f": 5977, "\u7a20": 5978, "\u7a23": 5979, "\u7a2e": 5980, "\u7a31": 5981, "\u7a32": 5982, "\u7a33": 5983, "\u7a37": 5984, "\u7a3b": 5985, "\u7a3c": 5986, "\u7a3d": 5987, "\u7a3f": 5988, "\u7a40": 5989, "\u7a42": 5990, "\u7a46": 5991, "\u7a4c": 5992, "\u7a4d": 5993, "\u7a4e": 5994, "\u7a4f": 5995, "\u7a57": 5996, "\u7a62": 5997, "\u7a63": 5998, "\u7a69": 5999, "\u7a6b": 6000, "\u7a70": 6001, "\u7a74": 6002, "\u7a76": 6003, "\u7a77": 6004, "\u7a79": 6005, "\u7a7a": 6006, "\u7a7f": 6007, "\u7a81": 6008, "\u7a83": 6009, "\u7a84": 6010, "\u7a88": 6011, "\u7a91": 6012, "\u7a92": 6013, "\u7a93": 6014, "\u7a96": 6015, "\u7a97": 6016, "\u7a98": 6017, "\u7a9c": 6018, "\u7a9d": 6019, "\u7a9f": 6020, "\u7aa5": 6021, "\u7aa6": 6022, "\u7aa9": 6023, "\u7aaa": 6024, "\u7aae": 6025, "\u7aaf": 6026, "\u7aba": 6027, "\u7abf": 6028, "\u7ac4": 6029, "\u7ac7": 6030, "\u7ac8": 6031, "\u7aca": 6032, "\u7acb": 6033, "\u7ad1": 6034, "\u7ad6": 6035, "\u7ad9": 6036, "\u7adc": 6037, "\u7ade": 6038, "\u7adf": 6039, "\u7ae0": 6040, "\u7ae3": 6041, "\u7ae5": 6042, "\u7aea": 6043, "\u7aed": 6044, "\u7aef": 6045, "\u7af6": 6046, "\u7af9": 6047, "\u7afa": 6048, "\u7aff": 6049, "\u7b03": 6050, "\u7b08": 6051, "\u7b0b": 6052, "\u7b0f": 6053, "\u7b11": 6054, "\u7b14": 6055, "\u7b19": 6056, "\u7b1b": 6057, "\u7b1e": 6058, "\u7b20": 6059, "\u7b25": 6060, "\u7b26": 6061, "\u7b28": 6062, "\u7b2c": 6063, "\u7b39": 6064, "\u7b3a": 6065, "\u7b3c": 6066, "\u7b46": 6067, "\u7b48": 6068, "\u7b49": 6069, "\u7b4b": 6070, "\u7b4d": 6071, "\u7b4f": 6072, "\u7b50": 6073, "\u7b51": 6074, "\u7b52": 6075, "\u7b54": 6076, "\u7b56": 6077, "\u7b5b": 6078, "\u7b5d": 6079, "\u7b60": 6080, "\u7b67": 6081, "\u7b71": 6082, "\u7b72": 6083, "\u7b75": 6084, "\u7b77": 6085, "\u7b79": 6086, "\u7b7e": 6087, "\u7b80": 6088, "\u7b87": 6089, "\u7b8b": 6090, "\u7b8d": 6091, "\u7b8f": 6092, "\u7b90": 6093, "\u7b92": 6094, "\u7b94": 6095, "\u7b95": 6096, "\u7b97": 6097, "\u7ba1": 6098, "\u7baa": 6099, "\u7bad": 6100, "\u7bb1": 6101, "\u7bb4": 6102, "\u7bb8": 6103, "\u7bc0": 6104, "\u7bc1": 6105, "\u7bc4": 6106, "\u7bc6": 6107, "\u7bc7": 6108, "\u7bc9": 6109, "\u7bd9": 6110, "\u7bdd": 6111, "\u7be0": 6112, "\u7be1": 6113, "\u7be4": 6114, "\u7be9": 6115, "\u7bed": 6116, "\u7bee": 6117, "\u7bf1": 6118, "\u7bf7": 6119, "\u7c07": 6120, "\u7c12": 6121, "\u7c17": 6122, "\u7c21": 6123, "\u7c27": 6124, "\u7c2a": 6125, "\u7c2b": 6126, "\u7c37": 6127, "\u7c38": 6128, "\u7c3d": 6129, "\u7c3e": 6130, "\u7c3f": 6131, "\u7c43": 6132, "\u7c4c": 6133, "\u7c4d": 6134, "\u7c50": 6135, "\u7c60": 6136, "\u7c64": 6137, "\u7c6c": 6138, "\u7c72": 6139, "\u7c73": 6140, "\u7c7b": 6141, "\u7c7d": 6142, "\u7c7e": 6143, "\u7c89": 6144, "\u7c8b": 6145, "\u7c92": 6146, "\u7c95": 6147, "\u7c97": 6148, "\u7c98": 6149, "\u7c9b": 6150, "\u7c9f": 6151, "\u7ca4": 6152, "\u7ca5": 6153, "\u7ca7": 6154, "\u7caa": 6155, "\u7cae": 6156, "\u7cb1": 6157, "\u7cb2": 6158, "\u7cb5": 6159, "\u7cb9": 6160, "\u7cbd": 6161, "\u7cbe": 6162, "\u7cbf": 6163, "\u7cca": 6164, "\u7cce": 6165, "\u7cd5": 6166, "\u7cd6": 6167, "\u7cd9": 6168, "\u7cdc": 6169, "\u7cde": 6170, "\u7cdf": 6171, "\u7ce0": 6172, "\u7ce7": 6173, "\u7cef": 6174, "\u7cf8": 6175, "\u7cfb": 6176, "\u7cfe": 6177, "\u7d00": 6178, "\u7d02": 6179, "\u7d04": 6180, "\u7d05": 6181, "\u7d06": 6182, "\u7d07": 6183, "\u7d0a": 6184, "\u7d0b": 6185, "\u7d0d": 6186, "\u7d10": 6187, "\u7d13": 6188, "\u7d14": 6189, "\u7d17": 6190, "\u7d18": 6191, "\u7d19": 6192, "\u7d1a": 6193, "\u7d1b": 6194, "\u7d20": 6195, "\u7d21": 6196, "\u7d22": 6197, "\u7d27": 6198, "\u7d2b": 6199, "\u7d2c": 6200, "\u7d2e": 6201, "\u7d2f": 6202, "\u7d30": 6203, "\u7d33": 6204, "\u7d39": 6205, "\u7d3a": 6206, "\u7d42": 6207, "\u7d43": 6208, "\u7d44": 6209, "\u7d46": 6210, "\u7d4c": 6211, "\u7d50": 6212, "\u7d55": 6213, "\u7d5e": 6214, "\u7d61": 6215, "\u7d62": 6216, "\u7d66": 6217, "\u7d68": 6218, "\u7d6e": 6219, "\u7d71": 6220, "\u7d72": 6221, "\u7d73": 6222, "\u7d75": 6223, "\u7d76": 6224, "\u7d79": 6225, "\u7d81": 6226, "\u7d8f": 6227, "\u7d93": 6228, "\u7d99": 6229, "\u7d9a": 6230, "\u7d9c": 6231, "\u7da0": 6232, "\u7da2": 6233, "\u7da6": 6234, "\u7dab": 6235, "\u7dac": 6236, "\u7dad": 6237, "\u7db1": 6238, "\u7db2": 6239, "\u7db4": 6240, "\u7db8": 6241, "\u7dba": 6242, "\u7dbb": 6243, "\u7dbd": 6244, "\u7dbe": 6245, "\u7dbf": 6246, "\u7dca": 6247, "\u7dcb": 6248, "\u7dcf": 6249, "\u7dd1": 6250, "\u7dd2": 6251, "\u7dda": 6252, "\u7ddd": 6253, "\u7dde": 6254, "\u7de0": 6255, "\u7de3": 6256, "\u7de8": 6257, "\u7de9": 6258, "\u7dec": 6259, "\u7def": 6260, "\u7df4": 6261, "\u7df9": 6262, "\u7dfb": 6263, "\u7e01": 6264, "\u7e04": 6265, "\u7e09": 6266, "\u7e0a": 6267, "\u7e1b": 6268, "\u7e1e": 6269, "\u7e23": 6270, "\u7e26": 6271, "\u7e2b": 6272, "\u7e2e": 6273, "\u7e31": 6274, "\u7e37": 6275, "\u7e3b": 6276, "\u7e3d": 6277, "\u7e3e": 6278, "\u7e41": 6279, "\u7e46": 6280, "\u7e47": 6281, "\u7e4a": 6282, "\u7e4b": 6283, "\u7e4d": 6284, "\u7e54": 6285, "\u7e55": 6286, "\u7e5a": 6287, "\u7e5e": 6288, "\u7e61": 6289, "\u7e69": 6290, "\u7e6a": 6291, "\u7e6b": 6292, "\u7e6d": 6293, "\u7e70": 6294, "\u7e73": 6295, "\u7e79": 6296, "\u7e7c": 6297, "\u7e82": 6298, "\u7e8c": 6299, "\u7e8f": 6300, "\u7e93": 6301, "\u7e96": 6302, "\u7e9c": 6303, "\u7ea0": 6304, "\u7ea2": 6305, "\u7ea4": 6306, "\u7ea5": 6307, "\u7ea6": 6308, "\u7ea7": 6309, "\u7eaa": 6310, "\u7eac": 6311, "\u7eae": 6312, "\u7eaf": 6313, "\u7eb1": 6314, "\u7eb2": 6315, "\u7eb3": 6316, "\u7eb5": 6317, "\u7eb6": 6318, "\u7eb7": 6319, "\u7eb8": 6320, "\u7eb9": 6321, "\u7eba": 6322, "\u7ebd": 6323, "\u7ebe": 6324, "\u7ebf": 6325, "\u7ec0": 6326, "\u7ec3": 6327, "\u7ec4": 6328, "\u7ec5": 6329, "\u7ec6": 6330, "\u7ec7": 6331, "\u7ec8": 6332, "\u7eca": 6333, "\u7ecd": 6334, "\u7ece": 6335, "\u7ecf": 6336, "\u7ed1": 6337, "\u7ed2": 6338, "\u7ed3": 6339, "\u7ed5": 6340, "\u7ed8": 6341, "\u7ed9": 6342, "\u7eda": 6343, "\u7edb": 6344, "\u7edc": 6345, "\u7edd": 6346, "\u7ede": 6347, "\u7edf": 6348, "\u7ee2": 6349, "\u7ee3": 6350, "\u7ee5": 6351, "\u7ee7": 6352, "\u7ee9": 6353, "\u7eea": 6354, "\u7eeb": 6355, "\u7eed": 6356, "\u7eee": 6357, "\u7eef": 6358, "\u7ef0": 6359, "\u7ef3": 6360, "\u7ef4": 6361, "\u7ef5": 6362, "\u7ef6": 6363, "\u7ef8": 6364, "\u7efc": 6365, "\u7efd": 6366, "\u7eff": 6367, "\u7f00": 6368, "\u7f05": 6369, "\u7f06": 6370, "\u7f07": 6371, "\u7f09": 6372, "\u7f0e": 6373, "\u7f13": 6374, "\u7f14": 6375, "\u7f15": 6376, "\u7f16": 6377, "\u7f18": 6378, "\u7f19": 6379, "\u7f1a": 6380, "\u7f1d": 6381, "\u7f20": 6382, "\u7f22": 6383, "\u7f28": 6384, "\u7f29": 6385, "\u7f2a": 6386, "\u7f2e": 6387, "\u7f34": 6388, "\u7f36": 6389, "\u7f38": 6390, "\u7f3a": 6391, "\u7f3d": 6392, "\u7f42": 6393, "\u7f44": 6394, "\u7f4c": 6395, "\u7f50": 6396, "\u7f51": 6397, "\u7f54": 6398, "\u7f55": 6399, "\u7f57": 6400, "\u7f5a": 6401, "\u7f60": 6402, "\u7f62": 6403, "\u7f69": 6404, "\u7f6a": 6405, "\u7f6e": 6406, "\u7f70": 6407, "\u7f72": 6408, "\u7f75": 6409, "\u7f77": 6410, "\u7f79": 6411, "\u7f81": 6412, "\u7f85": 6413, "\u7f88": 6414, "\u7f8a": 6415, "\u7f8c": 6416, "\u7f8e": 6417, "\u7f94": 6418, "\u7f9a": 6419, "\u7f9e": 6420, "\u7f9f": 6421, "\u7fa1": 6422, "\u7fa3": 6423, "\u7fa4": 6424, "\u7fa5": 6425, "\u7fa7": 6426, "\u7fa8": 6427, "\u7fa9": 6428, "\u7faf": 6429, "\u7fb0": 6430, "\u7fb2": 6431, "\u7fb9": 6432, "\u7fbd": 6433, "\u7fbf": 6434, "\u7fc1": 6435, "\u7fc5": 6436, "\u7fca": 6437, "\u7fcc": 6438, "\u7fce": 6439, "\u7fd2": 6440, "\u7fd4": 6441, "\u7fd8": 6442, "\u7fdf": 6443, "\u7fe0": 6444, "\u7fe1": 6445, "\u7fe6": 6446, "\u7fe9": 6447, "\u7ff0": 6448, "\u7ff1": 6449, "\u7ff3": 6450, "\u7ff9": 6451, "\u7ffb": 6452, "\u7ffc": 6453, "\u8000": 6454, "\u8001": 6455, "\u8003": 6456, "\u8005": 6457, "\u8006": 6458, "\u800c": 6459, "\u800d": 6460, "\u8010": 6461, "\u8012": 6462, "\u8015": 6463, "\u8017": 6464, "\u8018": 6465, "\u8019": 6466, "\u8026": 6467, "\u8033": 6468, "\u8036": 6469, "\u8038": 6470, "\u803b": 6471, "\u803d": 6472, "\u803f": 6473, "\u8042": 6474, "\u8046": 6475, "\u804a": 6476, "\u804b": 6477, "\u804c": 6478, "\u8054": 6479, "\u8056": 6480, "\u8058": 6481, "\u805a": 6482, "\u805e": 6483, "\u8061": 6484, "\u806a": 6485, "\u806f": 6486, "\u8070": 6487, "\u8072": 6488, "\u8073": 6489, "\u8074": 6490, "\u8076": 6491, "\u8077": 6492, "\u807d": 6493, "\u807e": 6494, "\u807f": 6495, "\u8083": 6496, "\u8084": 6497, "\u8085": 6498, "\u8086": 6499, "\u8087": 6500, "\u8089": 6501, "\u808b": 6502, "\u808c": 6503, "\u8096": 6504, "\u8098": 6505, "\u809a": 6506, "\u809b": 6507, "\u809d": 6508, "\u80a0": 6509, "\u80a1": 6510, "\u80a2": 6511, "\u80a4": 6512, "\u80a5": 6513, "\u80a9": 6514, "\u80aa": 6515, "\u80af": 6516, "\u80b1": 6517, "\u80b2": 6518, "\u80b4": 6519, "\u80ba": 6520, "\u80bd": 6521, "\u80be": 6522, "\u80bf": 6523, "\u80c0": 6524, "\u80c1": 6525, "\u80c3": 6526, "\u80c4": 6527, "\u80c6": 6528, "\u80cc": 6529, "\u80ce": 6530, "\u80d6": 6531, "\u80da": 6532, "\u80dc": 6533, "\u80de": 6534, "\u80e1": 6535, "\u80e4": 6536, "\u80e5": 6537, "\u80ea": 6538, "\u80ed": 6539, "\u80f0": 6540, "\u80f1": 6541, "\u80f4": 6542, "\u80f6": 6543, "\u80f8": 6544, "\u80fa": 6545, "\u80fd": 6546, "\u8102": 6547, "\u8105": 6548, "\u8106": 6549, "\u8107": 6550, "\u8108": 6551, "\u8109": 6552, "\u810a": 6553, "\u810f": 6554, "\u8110": 6555, "\u8111": 6556, "\u8116": 6557, "\u811a": 6558, "\u811b": 6559, "\u8129": 6560, "\u812b": 6561, "\u812f": 6562, "\u8131": 6563, "\u8133": 6564, "\u8137": 6565, "\u8138": 6566, "\u8139": 6567, "\u813e": 6568, "\u8148": 6569, "\u814a": 6570, "\u814b": 6571, "\u814c": 6572, "\u814e": 6573, "\u8150": 6574, "\u8151": 6575, "\u8153": 6576, "\u8154": 6577, "\u8155": 6578, "\u8165": 6579, "\u8166": 6580, "\u816b": 6581, "\u816e": 6582, "\u8170": 6583, "\u8171": 6584, "\u8173": 6585, "\u8178": 6586, "\u8179": 6587, "\u817a": 6588, "\u817b": 6589, "\u817e": 6590, "\u817f": 6591, "\u8180": 6592, "\u818f": 6593, "\u819a": 6594, "\u819b": 6595, "\u819c": 6596, "\u819d": 6597, "\u81a0": 6598, "\u81a3": 6599, "\u81a6": 6600, "\u81a8": 6601, "\u81a9": 6602, "\u81b3": 6603, "\u81b5": 6604, "\u81ba": 6605, "\u81bd": 6606, "\u81bf": 6607, "\u81c0": 6608, "\u81c2": 6609, "\u81c6": 6610, "\u81c9": 6611, "\u81cd": 6612, "\u81d3": 6613, "\u81d8": 6614, "\u81da": 6615, "\u81df": 6616, "\u81e3": 6617, "\u81e5": 6618, "\u81e7": 6619, "\u81e8": 6620, "\u81ea": 6621, "\u81ed": 6622, "\u81f3": 6623, "\u81f4": 6624, "\u81fa": 6625, "\u81fb": 6626, "\u81fc": 6627, "\u8202": 6628, "\u8205": 6629, "\u8206": 6630, "\u8207": 6631, "\u8208": 6632, "\u8209": 6633, "\u820a": 6634, "\u820c": 6635, "\u820d": 6636, "\u820e": 6637, "\u8210": 6638, "\u8212": 6639, "\u8214": 6640, "\u8216": 6641, "\u8217": 6642, "\u8218": 6643, "\u821b": 6644, "\u821c": 6645, "\u821e": 6646, "\u821f": 6647, "\u822a": 6648, "\u822b": 6649, "\u822c": 6650, "\u8230": 6651, "\u8231": 6652, "\u8235": 6653, "\u8236": 6654, "\u8237": 6655, "\u8239": 6656, "\u823a": 6657, "\u8247": 6658, "\u8249": 6659, "\u824b": 6660, "\u824f": 6661, "\u8258": 6662, "\u8259": 6663, "\u8264": 6664, "\u8266": 6665, "\u826e": 6666, "\u826f": 6667, "\u8270": 6668, "\u8271": 6669, "\u8272": 6670, "\u8273": 6671, "\u8276": 6672, "\u8277": 6673, "\u827a": 6674, "\u827e": 6675, "\u8282": 6676, "\u828b": 6677, "\u828d": 6678, "\u828e": 6679, "\u8292": 6680, "\u8299": 6681, "\u829c": 6682, "\u829d": 6683, "\u82a5": 6684, "\u82a6": 6685, "\u82a9": 6686, "\u82ac": 6687, "\u82ad": 6688, "\u82ae": 6689, "\u82af": 6690, "\u82b1": 6691, "\u82b3": 6692, "\u82b7": 6693, "\u82b8": 6694, "\u82b9": 6695, "\u82bb": 6696, "\u82bd": 6697, "\u82be": 6698, "\u82c5": 6699, "\u82c7": 6700, "\u82cd": 6701, "\u82cf": 6702, "\u82d1": 6703, "\u82d3": 6704, "\u82d4": 6705, "\u82d7": 6706, "\u82db": 6707, "\u82de": 6708, "\u82df": 6709, "\u82e3": 6710, "\u82e5": 6711, "\u82e6": 6712, "\u82eb": 6713, "\u82ef": 6714, "\u82f1": 6715, "\u82f3": 6716, "\u82f4": 6717, "\u82f7": 6718, "\u82f9": 6719, "\u82fa": 6720, "\u82fb": 6721, "\u82fe": 6722, "\u8302": 6723, "\u8303": 6724, "\u8304": 6725, "\u8305": 6726, "\u8309": 6727, "\u830e": 6728, "\u8317": 6729, "\u831b": 6730, "\u831c": 6731, "\u8327": 6732, "\u8328": 6733, "\u832b": 6734, "\u8331": 6735, "\u8332": 6736, "\u8334": 6737, "\u8335": 6738, "\u8336": 6739, "\u8338": 6740, "\u8339": 6741, "\u8340": 6742, "\u8343": 6743, "\u8346": 6744, "\u8349": 6745, "\u834a": 6746, "\u834f": 6747, "\u8350": 6748, "\u8352": 6749, "\u8354": 6750, "\u8356": 6751, "\u8358": 6752, "\u835a": 6753, "\u835f": 6754, "\u8361": 6755, "\u8363": 6756, "\u8365": 6757, "\u8367": 6758, "\u836b": 6759, "\u836f": 6760, "\u8377": 6761, "\u837b": 6762, "\u837c": 6763, "\u8385": 6764, "\u8386": 6765, "\u8389": 6766, "\u838a": 6767, "\u838e": 6768, "\u8392": 6769, "\u8393": 6770, "\u8396": 6771, "\u8398": 6772, "\u839e": 6773, "\u83a2": 6774, "\u83aa": 6775, "\u83ab": 6776, "\u83b1": 6777, "\u83b2": 6778, "\u83b7": 6779, "\u83b9": 6780, "\u83ba": 6781, "\u83bd": 6782, "\u83bf": 6783, "\u83c0": 6784, "\u83c1": 6785, "\u83c5": 6786, "\u83c7": 6787, "\u83c8": 6788, "\u83ca": 6789, "\u83cc": 6790, "\u83cf": 6791, "\u83d3": 6792, "\u83d6": 6793, "\u83d8": 6794, "\u83dc": 6795, "\u83df": 6796, "\u83e0": 6797, "\u83e9": 6798, "\u83eb": 6799, "\u83ef": 6800, "\u83f0": 6801, "\u83f1": 6802, "\u83f2": 6803, "\u83f4": 6804, "\u83f8": 6805, "\u8403": 6806, "\u8404": 6807, "\u8407": 6808, "\u840a": 6809, "\u840c": 6810, "\u840d": 6811, "\u840e": 6812, "\u8418": 6813, "\u841d": 6814, "\u8424": 6815, "\u8425": 6816, "\u8427": 6817, "\u8428": 6818, "\u8429": 6819, "\u842c": 6820, "\u8431": 6821, "\u8438": 6822, "\u843c": 6823, "\u843d": 6824, "\u8446": 6825, "\u8449": 6826, "\u8457": 6827, "\u845b": 6828, "\u8461": 6829, "\u8463": 6830, "\u8466": 6831, "\u846b": 6832, "\u846c": 6833, "\u846d": 6834, "\u8471": 6835, "\u8473": 6836, "\u8475": 6837, "\u847a": 6838, "\u8482": 6839, "\u848b": 6840, "\u8490": 6841, "\u8494": 6842, "\u8499": 6843, "\u849c": 6844, "\u849e": 6845, "\u84a8": 6846, "\u84af": 6847, "\u84b2": 6848, "\u84b4": 6849, "\u84b8": 6850, "\u84bc": 6851, "\u84bf": 6852, "\u84c0": 6853, "\u84c1": 6854, "\u84c4": 6855, "\u84c9": 6856, "\u84cb": 6857, "\u84d1": 6858, "\u84d3": 6859, "\u84dd": 6860, "\u84df": 6861, "\u84ec": 6862, "\u84ee": 6863, "\u84fc": 6864, "\u8511": 6865, "\u8513": 6866, "\u8514": 6867, "\u8517": 6868, "\u851a": 6869, "\u8521": 6870, "\u8523": 6871, "\u8525": 6872, "\u8526": 6873, "\u852c": 6874, "\u852d": 6875, "\u8535": 6876, "\u8537": 6877, "\u853b": 6878, "\u853d": 6879, "\u8541": 6880, "\u8543": 6881, "\u8548": 6882, "\u8549": 6883, "\u854a": 6884, "\u854e": 6885, "\u8557": 6886, "\u8559": 6887, "\u8568": 6888, "\u8569": 6889, "\u856a": 6890, "\u856d": 6891, "\u8572": 6892, "\u8574": 6893, "\u857e": 6894, "\u8584": 6895, "\u8587": 6896, "\u8588": 6897, "\u858a": 6898, "\u8591": 6899, "\u8594": 6900, "\u8597": 6901, "\u8599": 6902, "\u859b": 6903, "\u85a6": 6904, "\u85a8": 6905, "\u85a9": 6906, "\u85aa": 6907, "\u85ab": 6908, "\u85ac": 6909, "\u85ae": 6910, "\u85af": 6911, "\u85b0": 6912, "\u85b9": 6913, "\u85c1": 6914, "\u85c9": 6915, "\u85cd": 6916, "\u85cf": 6917, "\u85d0": 6918, "\u85d3": 6919, "\u85d4": 6920, "\u85d5": 6921, "\u85dc": 6922, "\u85dd": 6923, "\u85e4": 6924, "\u85e5": 6925, "\u85e9": 6926, "\u85ea": 6927, "\u85f9": 6928, "\u85fa": 6929, "\u85fb": 6930, "\u8602": 6931, "\u8604": 6932, "\u8606": 6933, "\u8607": 6934, "\u860a": 6935, "\u860b": 6936, "\u8611": 6937, "\u861a": 6938, "\u862d": 6939, "\u863f": 6940, "\u864e": 6941, "\u864f": 6942, "\u8650": 6943, "\u8651": 6944, "\u8654": 6945, "\u8655": 6946, "\u865a": 6947, "\u865b": 6948, "\u865c": 6949, "\u865e": 6950, "\u865f": 6951, "\u8662": 6952, "\u8667": 6953, "\u866b": 6954, "\u866c": 6955, "\u8671": 6956, "\u8679": 6957, "\u867b": 6958, "\u867d": 6959, "\u867e": 6960, "\u8680": 6961, "\u8681": 6962, "\u8682": 6963, "\u868a": 6964, "\u868c": 6965, "\u8693": 6966, "\u8695": 6967, "\u869c": 6968, "\u869d": 6969, "\u86a3": 6970, "\u86a4": 6971, "\u86a9": 6972, "\u86aa": 6973, "\u86ac": 6974, "\u86b5": 6975, "\u86b6": 6976, "\u86c7": 6977, "\u86c9": 6978, "\u86ca": 6979, "\u86cb": 6980, "\u86cd": 6981, "\u86ce": 6982, "\u86d9": 6983, "\u86db": 6984, "\u86de": 6985, "\u86df": 6986, "\u86e4": 6987, "\u86ed": 6988, "\u86ee": 6989, "\u86ef": 6990, "\u86f1": 6991, "\u86f8": 6992, "\u86f9": 6993, "\u86fa": 6994, "\u86fb": 6995, "\u86fe": 6996, "\u8700": 6997, "\u8702": 6998, "\u8703": 6999, "\u8706": 7000, "\u8708": 7001, "\u870d": 7002, "\u8712": 7003, "\u8713": 7004, "\u8715": 7005, "\u8717": 7006, "\u8718": 7007, "\u871a": 7008, "\u871c": 7009, "\u8721": 7010, "\u8722": 7011, "\u8725": 7012, "\u8731": 7013, "\u8734": 7014, "\u8737": 7015, "\u873b": 7016, "\u873f": 7017, "\u8747": 7018, "\u8749": 7019, "\u874b": 7020, "\u874c": 7021, "\u874e": 7022, "\u8753": 7023, "\u8755": 7024, "\u8757": 7025, "\u8759": 7026, "\u8760": 7027, "\u8766": 7028, "\u8768": 7029, "\u876e": 7030, "\u8770": 7031, "\u8774": 7032, "\u8776": 7033, "\u8778": 7034, "\u877d": 7035, "\u8782": 7036, "\u8783": 7037, "\u8788": 7038, "\u878d": 7039, "\u879e": 7040, "\u87a2": 7041, "\u87af": 7042, "\u87b3": 7043, "\u87ba": 7044, "\u87c4": 7045, "\u87c6": 7046, "\u87cb": 7047, "\u87d1": 7048, "\u87d2": 7049, "\u87e0": 7050, "\u87ec": 7051, "\u87f2": 7052, "\u87f9": 7053, "\u87fb": 7054, "\u87fe": 7055, "\u8805": 7056, "\u880d": 7057, "\u8815": 7058, "\u881f": 7059, "\u8821": 7060, "\u8822": 7061, "\u8823": 7062, "\u8831": 7063, "\u8836": 7064, "\u883b": 7065, "\u8840": 7066, "\u8845": 7067, "\u8846": 7068, "\u884c": 7069, "\u884d": 7070, "\u8853": 7071, "\u8854": 7072, "\u8857": 7073, "\u8859": 7074, "\u885b": 7075, "\u885d": 7076, "\u885e": 7077, "\u8861": 7078, "\u8862": 7079, "\u8863": 7080, "\u8865": 7081, "\u8868": 7082, "\u886b": 7083, "\u886c": 7084, "\u886e": 7085, "\u8870": 7086, "\u8877": 7087, "\u887f": 7088, "\u8881": 7089, "\u8882": 7090, "\u8888": 7091, "\u888b": 7092, "\u888d": 7093, "\u8892": 7094, "\u8896": 7095, "\u889c": 7096, "\u889e": 7097, "\u88ab": 7098, "\u88ad": 7099, "\u88b1": 7100, "\u88b4": 7101, "\u88c1": 7102, "\u88c2": 7103, "\u88c5": 7104, "\u88cf": 7105, "\u88d4": 7106, "\u88d5": 7107, "\u88d8": 7108, "\u88d9": 7109, "\u88dc": 7110, "\u88dd": 7111, "\u88df": 7112, "\u88e1": 7113, "\u88e4": 7114, "\u88e8": 7115, "\u88f3": 7116, "\u88f4": 7117, "\u88f8": 7118, "\u88f9": 7119, "\u88fd": 7120, "\u88fe": 7121, "\u8907": 7122, "\u8910": 7123, "\u8912": 7124, "\u891a": 7125, "\u8925": 7126, "\u892a": 7127, "\u892b": 7128, "\u8932": 7129, "\u8936": 7130, "\u893b": 7131, "\u8944": 7132, "\u8956": 7133, "\u895f": 7134, "\u896a": 7135, "\u896f": 7136, "\u8972": 7137, "\u897f": 7138, "\u8981": 7139, "\u8983": 7140, "\u8986": 7141, "\u8987": 7142, "\u898b": 7143, "\u898f": 7144, "\u8993": 7145, "\u8996": 7146, "\u8997": 7147, "\u899a": 7148, "\u89a7": 7149, "\u89aa": 7150, "\u89b2": 7151, "\u89b3": 7152, "\u89ba": 7153, "\u89bd": 7154, "\u89c0": 7155, "\u89c1": 7156, "\u89c2": 7157, "\u89c4": 7158, "\u89c5": 7159, "\u89c6": 7160, "\u89c8": 7161, "\u89c9": 7162, "\u89d0": 7163, "\u89d2": 7164, "\u89e3": 7165, "\u89e6": 7166, "\u89f8": 7167, "\u8a00": 7168, "\u8a02": 7169, "\u8a03": 7170, "\u8a08": 7171, "\u8a0a": 7172, "\u8a0e": 7173, "\u8a13": 7174, "\u8a16": 7175, "\u8a17": 7176, "\u8a18": 7177, "\u8a1b": 7178, "\u8a1d": 7179, "\u8a1f": 7180, "\u8a23": 7181, "\u8a25": 7182, "\u8a2a": 7183, "\u8a2d": 7184, "\u8a31": 7185, "\u8a33": 7186, "\u8a34": 7187, "\u8a36": 7188, "\u8a3a": 7189, "\u8a3b": 7190, "\u8a3c": 7191, "\u8a50": 7192, "\u8a54": 7193, "\u8a55": 7194, "\u8a5b": 7195, "\u8a5e": 7196, "\u8a60": 7197, "\u8a61": 7198, "\u8a62": 7199, "\u8a63": 7200, "\u8a66": 7201, "\u8a69": 7202, "\u8a6b": 7203, "\u8a6d": 7204, "\u8a6e": 7205, "\u8a70": 7206, "\u8a71": 7207, "\u8a72": 7208, "\u8a73": 7209, "\u8a79": 7210, "\u8a85": 7211, "\u8a87": 7212, "\u8a89": 7213, "\u8a8c": 7214, "\u8a8d": 7215, "\u8a91": 7216, "\u8a93": 7217, "\u8a95": 7218, "\u8a98": 7219, "\u8a9e": 7220, "\u8aa0": 7221, "\u8aa1": 7222, "\u8aa3": 7223, "\u8aa4": 7224, "\u8aa5": 7225, "\u8aa6": 7226, "\u8aa8": 7227, "\u8aaa": 7228, "\u8aac": 7229, "\u8aad": 7230, "\u8ab0": 7231, "\u8ab2": 7232, "\u8ab9": 7233, "\u8abc": 7234, "\u8abf": 7235, "\u8ac2": 7236, "\u8ac7": 7237, "\u8acb": 7238, "\u8acc": 7239, "\u8acd": 7240, "\u8acf": 7241, "\u8ad2": 7242, "\u8ad6": 7243, "\u8adc": 7244, "\u8ae1": 7245, "\u8ae6": 7246, "\u8ae7": 7247, "\u8aeb": 7248, "\u8aed": 7249, "\u8aee": 7250, "\u8af1": 7251, "\u8af6": 7252, "\u8af7": 7253, "\u8af8": 7254, "\u8afa": 7255, "\u8afe": 7256, "\u8b00": 7257, "\u8b01": 7258, "\u8b02": 7259, "\u8b04": 7260, "\u8b0a": 7261, "\u8b0e": 7262, "\u8b10": 7263, "\u8b17": 7264, "\u8b19": 7265, "\u8b1a": 7266, "\u8b1b": 7267, "\u8b1d": 7268, "\u8b20": 7269, "\u8b21": 7270, "\u8b28": 7271, "\u8b2b": 7272, "\u8b2c": 7273, "\u8b33": 7274, "\u8b39": 7275, "\u8b49": 7276, "\u8b4f": 7277, "\u8b58": 7278, "\u8b59": 7279, "\u8b5a": 7280, "\u8b5c": 7281, "\u8b66": 7282, "\u8b6c": 7283, "\u8b6f": 7284, "\u8b70": 7285, "\u8b72": 7286, "\u8b74": 7287, "\u8b77": 7288, "\u8b7d": 7289, "\u8b80": 7290, "\u8b83": 7291, "\u8b8a": 7292, "\u8b90": 7293, "\u8b92": 7294, "\u8b93": 7295, "\u8b9a": 7296, "\u8b9e": 7297, "\u8ba1": 7298, "\u8ba2": 7299, "\u8ba4": 7300, "\u8ba5": 7301, "\u8ba8": 7302, "\u8ba9": 7303, "\u8bab": 7304, "\u8bad": 7305, "\u8bae": 7306, "\u8baf": 7307, "\u8bb0": 7308, "\u8bb2": 7309, "\u8bb3": 7310, "\u8bb6": 7311, "\u8bb7": 7312, "\u8bb8": 7313, "\u8bb9": 7314, "\u8bba": 7315, "\u8bbc": 7316, "\u8bbd": 7317, "\u8bbe": 7318, "\u8bbf": 7319, "\u8bc0": 7320, "\u8bc1": 7321, "\u8bc3": 7322, "\u8bc4": 7323, "\u8bc5": 7324, "\u8bc6": 7325, "\u8bc8": 7326, "\u8bc9": 7327, "\u8bca": 7328, "\u8bcd": 7329, "\u8bcf": 7330, "\u8bd1": 7331, "\u8bd2": 7332, "\u8bd5": 7333, "\u8bd7": 7334, "\u8bd8": 7335, "\u8bda": 7336, "\u8bdb": 7337, "\u8bdd": 7338, "\u8bde": 7339, "\u8be0": 7340, "\u8be1": 7341, "\u8be2": 7342, "\u8be3": 7343, "\u8be5": 7344, "\u8be6": 7345, "\u8be9": 7346, "\u8beb": 7347, "\u8bec": 7348, "\u8bed": 7349, "\u8bef": 7350, "\u8bf0": 7351, "\u8bf1": 7352, "\u8bf2": 7353, "\u8bf4": 7354, "\u8bf5": 7355, "\u8bf7": 7356, "\u8bf8": 7357, "\u8bf9": 7358, "\u8bfa": 7359, "\u8bfb": 7360, "\u8bfd": 7361, "\u8bfe": 7362, "\u8c01": 7363, "\u8c03": 7364, "\u8c05": 7365, "\u8c08": 7366, "\u8c0a": 7367, "\u8c0b": 7368, "\u8c0d": 7369, "\u8c0e": 7370, "\u8c0f": 7371, "\u8c10": 7372, "\u8c12": 7373, "\u8c13": 7374, "\u8c14": 7375, "\u8c15": 7376, "\u8c1a": 7377, "\u8c1b": 7378, "\u8c1c": 7379, "\u8c1f": 7380, "\u8c22": 7381, "\u8c23": 7382, "\u8c24": 7383, "\u8c25": 7384, "\u8c26": 7385, "\u8c28": 7386, "\u8c2a": 7387, "\u8c2c": 7388, "\u8c2d": 7389, "\u8c2f": 7390, "\u8c31": 7391, "\u8c33": 7392, "\u8c34": 7393, "\u8c37": 7394, "\u8c3f": 7395, "\u8c41": 7396, "\u8c46": 7397, "\u8c48": 7398, "\u8c4a": 7399, "\u8c4c": 7400, "\u8c4e": 7401, "\u8c50": 7402, "\u8c54": 7403, "\u8c5a": 7404, "\u8c61": 7405, "\u8c6a": 7406, "\u8c6b": 7407, "\u8c6c": 7408, "\u8c79": 7409, "\u8c7a": 7410, "\u8c82": 7411, "\u8c8c": 7412, "\u8c93": 7413, "\u8c98": 7414, "\u8c9d": 7415, "\u8c9e": 7416, "\u8ca0": 7417, "\u8ca1": 7418, "\u8ca2": 7419, "\u8ca7": 7420, "\u8ca8": 7421, "\u8ca9": 7422, "\u8caa": 7423, "\u8cab": 7424, "\u8cac": 7425, "\u8caf": 7426, "\u8cb0": 7427, "\u8cb3": 7428, "\u8cb4": 7429, "\u8cb6": 7430, "\u8cb7": 7431, "\u8cb8": 7432, "\u8cbb": 7433, "\u8cbc": 7434, "\u8cbd": 7435, "\u8cbf": 7436, "\u8cc0": 7437, "\u8cc1": 7438, "\u8cc2": 7439, "\u8cc3": 7440, "\u8cc4": 7441, "\u8cc7": 7442, "\u8cc8": 7443, "\u8cca": 7444, "\u8cd1": 7445, "\u8cd3": 7446, "\u8cda": 7447, "\u8cdb": 7448, "\u8cdc": 7449, "\u8cde": 7450, "\u8ce0": 7451, "\u8ce1": 7452, "\u8ce2": 7453, "\u8ce3": 7454, "\u8ce4": 7455, "\u8ce6": 7456, "\u8cea": 7457, "\u8ced": 7458, "\u8cf4": 7459, "\u8cfa": 7460, "\u8cfc": 7461, "\u8cfd": 7462, "\u8d04": 7463, "\u8d05": 7464, "\u8d08": 7465, "\u8d0a": 7466, "\u8d0b": 7467, "\u8d0d": 7468, "\u8d0f": 7469, "\u8d13": 7470, "\u8d16": 7471, "\u8d1b": 7472, "\u8d1d": 7473, "\u8d1e": 7474, "\u8d1f": 7475, "\u8d21": 7476, "\u8d22": 7477, "\u8d23": 7478, "\u8d24": 7479, "\u8d25": 7480, "\u8d26": 7481, "\u8d27": 7482, "\u8d28": 7483, "\u8d29": 7484, "\u8d2a": 7485, "\u8d2b": 7486, "\u8d2c": 7487, "\u8d2d": 7488, "\u8d2e": 7489, "\u8d2f": 7490, "\u8d30": 7491, "\u8d31": 7492, "\u8d32": 7493, "\u8d34": 7494, "\u8d35": 7495, "\u8d37": 7496, "\u8d38": 7497, "\u8d39": 7498, "\u8d3a": 7499, "\u8d3b": 7500, "\u8d3c": 7501, "\u8d3e": 7502, "\u8d3f": 7503, "\u8d41": 7504, "\u8d42": 7505, "\u8d43": 7506, "\u8d44": 7507, "\u8d48": 7508, "\u8d49": 7509, "\u8d4b": 7510, "\u8d4c": 7511, "\u8d4e": 7512, "\u8d4f": 7513, "\u8d50": 7514, "\u8d53": 7515, "\u8d54": 7516, "\u8d56": 7517, "\u8d5a": 7518, "\u8d5b": 7519, "\u8d5e": 7520, "\u8d60": 7521, "\u8d62": 7522, "\u8d63": 7523, "\u8d64": 7524, "\u8d66": 7525, "\u8d6b": 7526, "\u8d6d": 7527, "\u8d70": 7528, "\u8d73": 7529, "\u8d74": 7530, "\u8d75": 7531, "\u8d76": 7532, "\u8d77": 7533, "\u8d81": 7534, "\u8d85": 7535, "\u8d8a": 7536, "\u8d8b": 7537, "\u8d95": 7538, "\u8d99": 7539, "\u8d9f": 7540, "\u8da3": 7541, "\u8da8": 7542, "\u8db3": 7543, "\u8db4": 7544, "\u8dbe": 7545, "\u8dc3": 7546, "\u8dc6": 7547, "\u8dcb": 7548, "\u8dcc": 7549, "\u8dd1": 7550, "\u8dd6": 7551, "\u8ddb": 7552, "\u8ddd": 7553, "\u8ddf": 7554, "\u8de1": 7555, "\u8de4": 7556, "\u8de8": 7557, "\u8dea": 7558, "\u8def": 7559, "\u8df3": 7560, "\u8df5": 7561, "\u8dfb": 7562, "\u8e0a": 7563, "\u8e0f": 7564, "\u8e10": 7565, "\u8e1d": 7566, "\u8e1e": 7567, "\u8e22": 7568, "\u8e29": 7569, "\u8e2a": 7570, "\u8e34": 7571, "\u8e35": 7572, "\u8e42": 7573, "\u8e44": 7574, "\u8e47": 7575, "\u8e48": 7576, "\u8e4a": 7577, "\u8e5f": 7578, "\u8e64": 7579, "\u8e66": 7580, "\u8e72": 7581, "\u8e74": 7582, "\u8e7c": 7583, "\u8e81": 7584, "\u8e87": 7585, "\u8e8a": 7586, "\u8e8b": 7587, "\u8e8d": 7588, "\u8e99": 7589, "\u8eab": 7590, "\u8eac": 7591, "\u8eaf": 7592, "\u8eb2": 7593, "\u8eba": 7594, "\u8ec0": 7595, "\u8eca": 7596, "\u8ecb": 7597, "\u8ecc": 7598, "\u8ecd": 7599, "\u8ed2": 7600, "\u8ed4": 7601, "\u8edb": 7602, "\u8edf": 7603, "\u8ee2": 7604, "\u8eeb": 7605, "\u8ef8": 7606, "\u8efb": 7607, "\u8efc": 7608, "\u8efd": 7609, "\u8efe": 7610, "\u8f03": 7611, "\u8f09": 7612, "\u8f0c": 7613, "\u8f12": 7614, "\u8f13": 7615, "\u8f14": 7616, "\u8f15": 7617, "\u8f1b": 7618, "\u8f1c": 7619, "\u8f1d": 7620, "\u8f1f": 7621, "\u8f26": 7622, "\u8f29": 7623, "\u8f2a": 7624, "\u8f2f": 7625, "\u8f38": 7626, "\u8f3b": 7627, "\u8f3e": 7628, "\u8f3f": 7629, "\u8f44": 7630, "\u8f45": 7631, "\u8f49": 7632, "\u8f4d": 7633, "\u8f4e": 7634, "\u8f5f": 7635, "\u8f62": 7636, "\u8f66": 7637, "\u8f67": 7638, "\u8f68": 7639, "\u8f69": 7640, "\u8f6c": 7641, "\u8f6d": 7642, "\u8f6e": 7643, "\u8f6f": 7644, "\u8f70": 7645, "\u8f74": 7646, "\u8f76": 7647, "\u8f78": 7648, "\u8f7b": 7649, "\u8f7c": 7650, "\u8f7d": 7651, "\u8f7f": 7652, "\u8f83": 7653, "\u8f84": 7654, "\u8f85": 7655, "\u8f86": 7656, "\u8f88": 7657, "\u8f89": 7658, "\u8f8d": 7659, "\u8f90": 7660, "\u8f91": 7661, "\u8f93": 7662, "\u8f95": 7663, "\u8f96": 7664, "\u8f97": 7665, "\u8f99": 7666, "\u8f9b": 7667, "\u8f9c": 7668, "\u8f9e": 7669, "\u8f9f": 7670, "\u8fa3": 7671, "\u8fa6": 7672, "\u8fa8": 7673, "\u8fa9": 7674, "\u8fab": 7675, "\u8fad": 7676, "\u8fae": 7677, "\u8faf": 7678, "\u8fb0": 7679, "\u8fb1": 7680, "\u8fb2": 7681, "\u8fb9": 7682, "\u8fba": 7683, "\u8fbb": 7684, "\u8fbc": 7685, "\u8fbd": 7686, "\u8fbe": 7687, "\u8fbf": 7688, "\u8fc1": 7689, "\u8fc2": 7690, "\u8fc4": 7691, "\u8fc5": 7692, "\u8fc7": 7693, "\u8fc8": 7694, "\u8fce": 7695, "\u8fd0": 7696, "\u8fd1": 7697, "\u8fd4": 7698, "\u8fd8": 7699, "\u8fd9": 7700, "\u8fdb": 7701, "\u8fdc": 7702, "\u8fdd": 7703, "\u8fde": 7704, "\u8fdf": 7705, "\u8fe5": 7706, "\u8fe6": 7707, "\u8fe9": 7708, "\u8fea": 7709, "\u8feb": 7710, "\u8fed": 7711, "\u8ff0": 7712, "\u8ff4": 7713, "\u8ff7": 7714, "\u8ff9": 7715, "\u8ffa": 7716, "\u8ffd": 7717, "\u9000": 7718, "\u9001": 7719, "\u9002": 7720, "\u9003": 7721, "\u9005": 7722, "\u9006": 7723, "\u9009": 7724, "\u900a": 7725, "\u900d": 7726, "\u900f": 7727, "\u9010": 7728, "\u9012": 7729, "\u9013": 7730, "\u9014": 7731, "\u9015": 7732, "\u9017": 7733, "\u9019": 7734, "\u901a": 7735, "\u901b": 7736, "\u901d": 7737, "\u901e": 7738, "\u901f": 7739, "\u9020": 7740, "\u9022": 7741, "\u9023": 7742, "\u902e": 7743, "\u9031": 7744, "\u9032": 7745, "\u9035": 7746, "\u9038": 7747, "\u903b": 7748, "\u903c": 7749, "\u903e": 7750, "\u9041": 7751, "\u9042": 7752, "\u9045": 7753, "\u9047": 7754, "\u904a": 7755, "\u904b": 7756, "\u904d": 7757, "\u904e": 7758, "\u904f": 7759, "\u9050": 7760, "\u9053": 7761, "\u9054": 7762, "\u9055": 7763, "\u9057": 7764, "\u9059": 7765, "\u905c": 7766, "\u905e": 7767, "\u9060": 7768, "\u9061": 7769, "\u9063": 7770, "\u9065": 7771, "\u9069": 7772, "\u906d": 7773, "\u906e": 7774, "\u9072": 7775, "\u9074": 7776, "\u9075": 7777, "\u9077": 7778, "\u9078": 7779, "\u9079": 7780, "\u907a": 7781, "\u907c": 7782, "\u907d": 7783, "\u907f": 7784, "\u9080": 7785, "\u9081": 7786, "\u9082": 7787, "\u9083": 7788, "\u9084": 7789, "\u9087": 7790, "\u9088": 7791, "\u9089": 7792, "\u908a": 7793, "\u908f": 7794, "\u9091": 7795, "\u9093": 7796, "\u9095": 7797, "\u909b": 7798, "\u909d": 7799, "\u90a0": 7800, "\u90a2": 7801, "\u90a3": 7802, "\u90a6": 7803, "\u90a8": 7804, "\u90aa": 7805, "\u90ac": 7806, "\u90ae": 7807, "\u90af": 7808, "\u90b0": 7809, "\u90b1": 7810, "\u90b3": 7811, "\u90b5": 7812, "\u90b8": 7813, "\u90b9": 7814, "\u90ba": 7815, "\u90bb": 7816, "\u90be": 7817, "\u90c1": 7818, "\u90c3": 7819, "\u90ca": 7820, "\u90ce": 7821, "\u90d1": 7822, "\u90d7": 7823, "\u90dc": 7824, "\u90dd": 7825, "\u90de": 7826, "\u90e1": 7827, "\u90e2": 7828, "\u90e4": 7829, "\u90e7": 7830, "\u90e8": 7831, "\u90ed": 7832, "\u90ef": 7833, "\u90f4": 7834, "\u90f5": 7835, "\u90f7": 7836, "\u90f8": 7837, "\u90fd": 7838, "\u9102": 7839, "\u9109": 7840, "\u9112": 7841, "\u9114": 7842, "\u9115": 7843, "\u9116": 7844, "\u9119": 7845, "\u911a": 7846, "\u911e": 7847, "\u9122": 7848, "\u9127": 7849, "\u912d": 7850, "\u912f": 7851, "\u9130": 7852, "\u9131": 7853, "\u9132": 7854, "\u9134": 7855, "\u913a": 7856, "\u9149": 7857, "\u914b": 7858, "\u914c": 7859, "\u914d": 7860, "\u914e": 7861, "\u9150": 7862, "\u9152": 7863, "\u9154": 7864, "\u9157": 7865, "\u915a": 7866, "\u9162": 7867, "\u9163": 7868, "\u9165": 7869, "\u916a": 7870, "\u916c": 7871, "\u916e": 7872, "\u916f": 7873, "\u9170": 7874, "\u9171": 7875, "\u9175": 7876, "\u9176": 7877, "\u9177": 7878, "\u9178": 7879, "\u917f": 7880, "\u9183": 7881, "\u9187": 7882, "\u9189": 7883, "\u918b": 7884, "\u918d": 7885, "\u9190": 7886, "\u9192": 7887, "\u919a": 7888, "\u919b": 7889, "\u919c": 7890, "\u91a3": 7891, "\u91a4": 7892, "\u91ab": 7893, "\u91ac": 7894, "\u91ae": 7895, "\u91af": 7896, "\u91b4": 7897, "\u91b8": 7898, "\u91c0": 7899, "\u91c1": 7900, "\u91c7": 7901, "\u91c8": 7902, "\u91c9": 7903, "\u91ca": 7904, "\u91cb": 7905, "\u91cc": 7906, "\u91cd": 7907, "\u91ce": 7908, "\u91cf": 7909, "\u91d0": 7910, "\u91d1": 7911, "\u91d7": 7912, "\u91d8": 7913, "\u91dc": 7914, "\u91dd": 7915, "\u91e3": 7916, "\u91e7": 7917, "\u91f5": 7918, "\u9209": 7919, "\u920d": 7920, "\u9214": 7921, "\u9215": 7922, "\u921e": 7923, "\u9223": 7924, "\u9226": 7925, "\u9234": 7926, "\u9237": 7927, "\u923a": 7928, "\u923e": 7929, "\u923f": 7930, "\u9240": 7931, "\u9244": 7932, "\u9245": 7933, "\u9248": 7934, "\u9249": 7935, "\u9251": 7936, "\u9257": 7937, "\u925b": 7938, "\u925e": 7939, "\u9262": 7940, "\u9264": 7941, "\u9271": 7942, "\u9274": 7943, "\u927b": 7944, "\u927e": 7945, "\u9280": 7946, "\u9283": 7947, "\u9285": 7948, "\u9291": 7949, "\u9293": 7950, "\u9296": 7951, "\u9298": 7952, "\u929a": 7953, "\u929c": 7954, "\u92a8": 7955, "\u92ad": 7956, "\u92ae": 7957, "\u92b3": 7958, "\u92b7": 7959, "\u92b9": 7960, "\u92c1": 7961, "\u92c5": 7962, "\u92cf": 7963, "\u92d2": 7964, "\u92e4": 7965, "\u92ea": 7966, "\u92ed": 7967, "\u92f0": 7968, "\u92f3": 7969, "\u92f8": 7970, "\u92fc": 7971, "\u9304": 7972, "\u9306": 7973, "\u9310": 7974, "\u9315": 7975, "\u9318": 7976, "\u931a": 7977, "\u9320": 7978, "\u9322": 7979, "\u9326": 7980, "\u9328": 7981, "\u932b": 7982, "\u932c": 7983, "\u932e": 7984, "\u932f": 7985, "\u9332": 7986, "\u9333": 7987, "\u9336": 7988, "\u934a": 7989, "\u934b": 7990, "\u934d": 7991, "\u9354": 7992, "\u935b": 7993, "\u936c": 7994, "\u936e": 7995, "\u9375": 7996, "\u937c": 7997, "\u937e": 7998, "\u9382": 7999, "\u938a": 8000, "\u938c": 8001, "\u938f": 8002, "\u9394": 8003, "\u9396": 8004, "\u9397": 8005, "\u939a": 8006, "\u93a2": 8007, "\u93a7": 8008, "\u93ac": 8009, "\u93ad": 8010, "\u93ae": 8011, "\u93b3": 8012, "\u93c3": 8013, "\u93c8": 8014, "\u93d1": 8015, "\u93d7": 8016, "\u93de": 8017, "\u93df": 8018, "\u93e1": 8019, "\u93e2": 8020, "\u93fd": 8021, "\u9418": 8022, "\u942e": 8023, "\u9433": 8024, "\u9435": 8025, "\u9438": 8026, "\u9444": 8027, "\u9451": 8028, "\u9452": 8029, "\u9463": 8030, "\u946b": 8031, "\u9470": 8032, "\u9472": 8033, "\u947c": 8034, "\u947d": 8035, "\u947e": 8036, "\u947f": 8037, "\u9488": 8038, "\u9489": 8039, "\u948a": 8040, "\u948f": 8041, "\u9493": 8042, "\u9497": 8043, "\u9499": 8044, "\u949a": 8045, "\u949b": 8046, "\u949c": 8047, "\u949d": 8048, "\u949e": 8049, "\u949f": 8050, "\u94a0": 8051, "\u94a2": 8052, "\u94a5": 8053, "\u94a6": 8054, "\u94a7": 8055, "\u94a8": 8056, "\u94a9": 8057, "\u94ae": 8058, "\u94b0": 8059, "\u94b1": 8060, "\u94b3": 8061, "\u94b4": 8062, "\u94b5": 8063, "\u94ba": 8064, "\u94bb": 8065, "\u94be": 8066, "\u94c0": 8067, "\u94c1": 8068, "\u94c2": 8069, "\u94c3": 8070, "\u94c5": 8071, "\u94c9": 8072, "\u94ce": 8073, "\u94dc": 8074, "\u94dd": 8075, "\u94e0": 8076, "\u94e8": 8077, "\u94ec": 8078, "\u94ed": 8079, "\u94ee": 8080, "\u94f2": 8081, "\u94f3": 8082, "\u94f5": 8083, "\u94f6": 8084, "\u94f8": 8085, "\u94fa": 8086, "\u94fe": 8087, "\u94ff": 8088, "\u9500": 8089, "\u9501": 8090, "\u9502": 8091, "\u9504": 8092, "\u9505": 8093, "\u9508": 8094, "\u950b": 8095, "\u950c": 8096, "\u9510": 8097, "\u9519": 8098, "\u951a": 8099, "\u951f": 8100, "\u9521": 8101, "\u9522": 8102, "\u9523": 8103, "\u9524": 8104, "\u9525": 8105, "\u9526": 8106, "\u952d": 8107, "\u952e": 8108, "\u952f": 8109, "\u9530": 8110, "\u9537": 8111, "\u953a": 8112, "\u953b": 8113, "\u9540": 8114, "\u9541": 8115, "\u9547": 8116, "\u954d": 8117, "\u9550": 8118, "\u9551": 8119, "\u9555": 8120, "\u9556": 8121, "\u955b": 8122, "\u955c": 8123, "\u956d": 8124, "\u9570": 8125, "\u9576": 8126, "\u9577": 8127, "\u957f": 8128, "\u9580": 8129, "\u9583": 8130, "\u9586": 8131, "\u9589": 8132, "\u958b": 8133, "\u958f": 8134, "\u9591": 8135, "\u9592": 8136, "\u9593": 8137, "\u9594": 8138, "\u9598": 8139, "\u95a2": 8140, "\u95a3": 8141, "\u95a4": 8142, "\u95a5": 8143, "\u95a8": 8144, "\u95a9": 8145, "\u95ac": 8146, "\u95ad": 8147, "\u95b1": 8148, "\u95b2": 8149, "\u95bb": 8150, "\u95be": 8151, "\u95c6": 8152, "\u95c7": 8153, "\u95ca": 8154, "\u95cd": 8155, "\u95d0": 8156, "\u95d5": 8157, "\u95d6": 8158, "\u95d8": 8159, "\u95dc": 8160, "\u95e1": 8161, "\u95e2": 8162, "\u95e8": 8163, "\u95ea": 8164, "\u95eb": 8165, "\u95ed": 8166, "\u95ee": 8167, "\u95ef": 8168, "\u95f0": 8169, "\u95f2": 8170, "\u95f4": 8171, "\u95f5": 8172, "\u95f7": 8173, "\u95f8": 8174, "\u95f9": 8175, "\u95fa": 8176, "\u95fb": 8177, "\u95fd": 8178, "\u95fe": 8179, "\u9600": 8180, "\u9601": 8181, "\u9605": 8182, "\u9606": 8183, "\u9607": 8184, "\u9609": 8185, "\u960e": 8186, "\u9610": 8187, "\u9614": 8188, "\u9617": 8189, "\u9619": 8190, "\u961c": 8191, "\u961f": 8192, "\u9621": 8193, "\u962a": 8194, "\u962e": 8195, "\u962f": 8196, "\u9631": 8197, "\u9632": 8198, "\u9633": 8199, "\u9634": 8200, "\u9635": 8201, "\u9636": 8202, "\u963b": 8203, "\u963f": 8204, "\u9640": 8205, "\u9642": 8206, "\u9644": 8207, "\u9645": 8208, "\u9646": 8209, "\u9647": 8210, "\u9648": 8211, "\u964b": 8212, "\u964c": 8213, "\u964d": 8214, "\u9650": 8215, "\u9655": 8216, "\u965b": 8217, "\u965d": 8218, "\u965e": 8219, "\u965f": 8220, "\u9661": 8221, "\u9662": 8222, "\u9663": 8223, "\u9664": 8224, "\u9665": 8225, "\u9668": 8226, "\u9669": 8227, "\u966a": 8228, "\u9670": 8229, "\u9672": 8230, "\u9673": 8231, "\u9675": 8232, "\u9676": 8233, "\u9677": 8234, "\u9678": 8235, "\u967a": 8236, "\u967d": 8237, "\u9685": 8238, "\u9686": 8239, "\u9688": 8240, "\u968a": 8241, "\u968b": 8242, "\u968d": 8243, "\u968e": 8244, "\u968f": 8245, "\u9690": 8246, "\u9694": 8247, "\u9695": 8248, "\u9697": 8249, "\u9698": 8250, "\u9699": 8251, "\u969b": 8252, "\u969c": 8253, "\u96a0": 8254, "\u96a3": 8255, "\u96a7": 8256, "\u96a8": 8257, "\u96aa": 8258, "\u96b1": 8259, "\u96b4": 8260, "\u96b6": 8261, "\u96b7": 8262, "\u96b8": 8263, "\u96bb": 8264, "\u96bc": 8265, "\u96bd": 8266, "\u96be": 8267, "\u96c0": 8268, "\u96c1": 8269, "\u96c4": 8270, "\u96c5": 8271, "\u96c6": 8272, "\u96c7": 8273, "\u96c9": 8274, "\u96cb": 8275, "\u96cc": 8276, "\u96cd": 8277, "\u96cf": 8278, "\u96d1": 8279, "\u96d2": 8280, "\u96d5": 8281, "\u96d6": 8282, "\u96d9": 8283, "\u96db": 8284, "\u96dc": 8285, "\u96de": 8286, "\u96e2": 8287, "\u96e3": 8288, "\u96e8": 8289, "\u96ea": 8290, "\u96eb": 8291, "\u96ef": 8292, "\u96f0": 8293, "\u96f2": 8294, "\u96f3": 8295, "\u96f6": 8296, "\u96f7": 8297, "\u96f9": 8298, "\u96fb": 8299, "\u96fe": 8300, "\u9700": 8301, "\u9704": 8302, "\u9706": 8303, "\u9707": 8304, "\u9709": 8305, "\u970a": 8306, "\u970d": 8307, "\u970f": 8308, "\u9711": 8309, "\u9713": 8310, "\u9716": 8311, "\u971c": 8312, "\u971e": 8313, "\u9727": 8314, "\u9730": 8315, "\u9732": 8316, "\u9738": 8317, "\u9739": 8318, "\u973d": 8319, "\u973e": 8320, "\u9742": 8321, "\u9744": 8322, "\u9748": 8323, "\u9751": 8324, "\u9752": 8325, "\u9753": 8326, "\u9756": 8327, "\u9759": 8328, "\u975a": 8329, "\u975b": 8330, "\u975c": 8331, "\u975e": 8332, "\u9760": 8333, "\u9761": 8334, "\u9762": 8335, "\u9769": 8336, "\u976d": 8337, "\u9771": 8338, "\u9773": 8339, "\u9774": 8340, "\u9776": 8341, "\u977a": 8342, "\u977c": 8343, "\u9784": 8344, "\u9785": 8345, "\u9786": 8346, "\u978b": 8347, "\u978d": 8348, "\u978f": 8349, "\u9791": 8350, "\u9798": 8351, "\u97a0": 8352, "\u97a8": 8353, "\u97ad": 8354, "\u97ae": 8355, "\u97c3": 8356, "\u97cb": 8357, "\u97cc": 8358, "\u97d3": 8359, "\u97dc": 8360, "\u97e6": 8361, "\u97e7": 8362, "\u97e9": 8363, "\u97ec": 8364, "\u97ed": 8365, "\u97ee": 8366, "\u97f3": 8367, "\u97f5": 8368, "\u97f6": 8369, "\u97fb": 8370, "\u97ff": 8371, "\u9801": 8372, "\u9802": 8373, "\u9803": 8374, "\u9805": 8375, "\u9806": 8376, "\u9808": 8377, "\u980a": 8378, "\u980c": 8379, "\u9810": 8380, "\u9811": 8381, "\u9812": 8382, "\u9813": 8383, "\u9817": 8384, "\u9818": 8385, "\u981a": 8386, "\u981c": 8387, "\u9821": 8388, "\u9824": 8389, "\u982c": 8390, "\u982d": 8391, "\u9830": 8392, "\u9838": 8393, "\u9839": 8394, "\u983b": 8395, "\u983c": 8396, "\u9846": 8397, "\u984c": 8398, "\u984d": 8399, "\u984e": 8400, "\u984f": 8401, "\u9852": 8402, "\u9854": 8403, "\u9855": 8404, "\u9857": 8405, "\u9858": 8406, "\u985b": 8407, "\u985e": 8408, "\u9865": 8409, "\u9867": 8410, "\u986b": 8411, "\u986f": 8412, "\u9871": 8413, "\u9875": 8414, "\u9876": 8415, "\u9877": 8416, "\u9879": 8417, "\u987a": 8418, "\u987b": 8419, "\u987d": 8420, "\u987e": 8421, "\u987f": 8422, "\u9881": 8423, "\u9882": 8424, "\u9884": 8425, "\u9885": 8426, "\u9886": 8427, "\u9887": 8428, "\u9888": 8429, "\u9889": 8430, "\u988a": 8431, "\u988c": 8432, "\u988d": 8433, "\u9890": 8434, "\u9891": 8435, "\u9893": 8436, "\u9896": 8437, "\u9897": 8438, "\u9898": 8439, "\u989a": 8440, "\u989c": 8441, "\u989d": 8442, "\u98a0": 8443, "\u98a4": 8444, "\u98a8": 8445, "\u98af": 8446, "\u98b1": 8447, "\u98b6": 8448, "\u98c4": 8449, "\u98c6": 8450, "\u98ce": 8451, "\u98d2": 8452, "\u98d3": 8453, "\u98d8": 8454, "\u98d9": 8455, "\u98db": 8456, "\u98de": 8457, "\u98df": 8458, "\u98e2": 8459, "\u98ea": 8460, "\u98ef": 8461, "\u98f2": 8462, "\u98f4": 8463, "\u98fc": 8464, "\u98fd": 8465, "\u98fe": 8466, "\u9903": 8467, "\u9905": 8468, "\u9909": 8469, "\u990a": 8470, "\u990c": 8471, "\u9910": 8472, "\u9913": 8473, "\u9918": 8474, "\u991a": 8475, "\u9921": 8476, "\u9928": 8477, "\u9935": 8478, "\u993e": 8479, "\u9945": 8480, "\u9949": 8481, "\u994b": 8482, "\u994c": 8483, "\u9951": 8484, "\u9952": 8485, "\u9957": 8486, "\u9965": 8487, "\u996a": 8488, "\u996d": 8489, "\u996e": 8490, "\u9970": 8491, "\u9971": 8492, "\u9972": 8493, "\u9975": 8494, "\u9976": 8495, "\u9977": 8496, "\u997a": 8497, "\u997c": 8498, "\u997f": 8499, "\u9980": 8500, "\u9985": 8501, "\u9986": 8502, "\u9988": 8503, "\u998f": 8504, "\u9996": 8505, "\u9997": 8506, "\u9999": 8507, "\u99a5": 8508, "\u99a8": 8509, "\u99ac": 8510, "\u99ad": 8511, "\u99ae": 8512, "\u99b1": 8513, "\u99b3": 8514, "\u99b4": 8515, "\u99c1": 8516, "\u99c4": 8517, "\u99c5": 8518, "\u99c6": 8519, "\u99d0": 8520, "\u99d2": 8521, "\u99d5": 8522, "\u99d9": 8523, "\u99db": 8524, "\u99dd": 8525, "\u99ed": 8526, "\u99f1": 8527, "\u99ff": 8528, "\u9a0e": 8529, "\u9a12": 8530, "\u9a13": 8531, "\u9a19": 8532, "\u9a28": 8533, "\u9a2b": 8534, "\u9a30": 8535, "\u9a37": 8536, "\u9a43": 8537, "\u9a45": 8538, "\u9a4a": 8539, "\u9a4d": 8540, "\u9a52": 8541, "\u9a55": 8542, "\u9a57": 8543, "\u9a5a": 8544, "\u9a5b": 8545, "\u9a5f": 8546, "\u9a62": 8547, "\u9a64": 8548, "\u9a65": 8549, "\u9a6a": 8550, "\u9a6c": 8551, "\u9a6d": 8552, "\u9a6e": 8553, "\u9a6f": 8554, "\u9a70": 8555, "\u9a71": 8556, "\u9a73": 8557, "\u9a74": 8558, "\u9a76": 8559, "\u9a78": 8560, "\u9a79": 8561, "\u9a7b": 8562, "\u9a7c": 8563, "\u9a7e": 8564, "\u9a7f": 8565, "\u9a81": 8566, "\u9a82": 8567, "\u9a84": 8568, "\u9a85": 8569, "\u9a86": 8570, "\u9a87": 8571, "\u9a8a": 8572, "\u9a8c": 8573, "\u9a8f": 8574, "\u9a91": 8575, "\u9a97": 8576, "\u9a9a": 8577, "\u9a9e": 8578, "\u9aa0": 8579, "\u9aa4": 8580, "\u9aa5": 8581, "\u9aa7": 8582, "\u9aa8": 8583, "\u9ab0": 8584, "\u9ab7": 8585, "\u9ab8": 8586, "\u9abc": 8587, "\u9ac4": 8588, "\u9ac5": 8589, "\u9acf": 8590, "\u9ad1": 8591, "\u9ad2": 8592, "\u9ad3": 8593, "\u9ad4": 8594, "\u9ad8": 8595, "\u9ad9": 8596, "\u9ae6": 8597, "\u9aea": 8598, "\u9aed": 8599, "\u9aee": 8600, "\u9aef": 8601, "\u9af7": 8602, "\u9afb": 8603, "\u9b03": 8604, "\u9b06": 8605, "\u9b0d": 8606, "\u9b18": 8607, "\u9b1a": 8608, "\u9b23": 8609, "\u9b25": 8610, "\u9b27": 8611, "\u9b31": 8612, "\u9b3c": 8613, "\u9b41": 8614, "\u9b42": 8615, "\u9b43": 8616, "\u9b44": 8617, "\u9b45": 8618, "\u9b4d": 8619, "\u9b4e": 8620, "\u9b4f": 8621, "\u9b54": 8622, "\u9b5a": 8623, "\u9b68": 8624, "\u9b6e": 8625, "\u9b6f": 8626, "\u9b77": 8627, "\u9b83": 8628, "\u9b8b": 8629, "\u9b8e": 8630, "\u9b91": 8631, "\u9b9f": 8632, "\u9ba0": 8633, "\u9ba1": 8634, "\u9ba8": 8635, "\u9bab": 8636, "\u9bad": 8637, "\u9bae": 8638, "\u9bc9": 8639, "\u9bca": 8640, "\u9bd6": 8641, "\u9bd9": 8642, "\u9bdb": 8643, "\u9be1": 8644, "\u9be4": 8645, "\u9be8": 8646, "\u9bf0": 8647, "\u9bf1": 8648, "\u9bfd": 8649, "\u9c02": 8650, "\u9c08": 8651, "\u9c0d": 8652, "\u9c10": 8653, "\u9c13": 8654, "\u9c15": 8655, "\u9c28": 8656, "\u9c2d": 8657, "\u9c32": 8658, "\u9c39": 8659, "\u9c3a": 8660, "\u9c3b": 8661, "\u9c42": 8662, "\u9c47": 8663, "\u9c48": 8664, "\u9c49": 8665, "\u9c52": 8666, "\u9c54": 8667, "\u9c57": 8668, "\u9c67": 8669, "\u9c68": 8670, "\u9c72": 8671, "\u9c77": 8672, "\u9c78": 8673, "\u9c7c": 8674, "\u9c7f": 8675, "\u9c80": 8676, "\u9c81": 8677, "\u9c86": 8678, "\u9c87": 8679, "\u9c88": 8680, "\u9c89": 8681, "\u9c8d": 8682, "\u9c91": 8683, "\u9c9b": 8684, "\u9c9c": 8685, "\u9ca4": 8686, "\u9ca8": 8687, "\u9cab": 8688, "\u9cb1": 8689, "\u9cb6": 8690, "\u9cb7": 8691, "\u9cb8": 8692, "\u9cbd": 8693, "\u9cbf": 8694, "\u9cc3": 8695, "\u9cc4": 8696, "\u9cc5": 8697, "\u9cc9": 8698, "\u9ccc": 8699, "\u9ccd": 8700, "\u9cce": 8701, "\u9cd5": 8702, "\u9cd6": 8703, "\u9cd7": 8704, "\u9cda": 8705, "\u9cdd": 8706, "\u9cde": 8707, "\u9ce2": 8708, "\u9ce5": 8709, "\u9ce9": 8710, "\u9cf3": 8711, "\u9cf4": 8712, "\u9cf6": 8713, "\u9d07": 8714, "\u9d09": 8715, "\u9d0e": 8716, "\u9d1b": 8717, "\u9d1e": 8718, "\u9d26": 8719, "\u9d28": 8720, "\u9d3b": 8721, "\u9d3f": 8722, "\u9d51": 8723, "\u9d59": 8724, "\u9d5c": 8725, "\u9d5d": 8726, "\u9d60": 8727, "\u9d61": 8728, "\u9d6c": 8729, "\u9d70": 8730, "\u9d72": 8731, "\u9d87": 8732, "\u9d89": 8733, "\u9d8f": 8734, "\u9da5": 8735, "\u9daf": 8736, "\u9db4": 8737, "\u9dbb": 8738, "\u9dd7": 8739, "\u9df2": 8740, "\u9df9": 8741, "\u9dfa": 8742, "\u9e1a": 8743, "\u9e1e": 8744, "\u9e1f": 8745, "\u9e20": 8746, "\u9e21": 8747, "\u9e22": 8748, "\u9e23": 8749, "\u9e25": 8750, "\u9e26": 8751, "\u9e2b": 8752, "\u9e2d": 8753, "\u9e2e": 8754, "\u9e2f": 8755, "\u9e33": 8756, "\u9e3d": 8757, "\u9e3e": 8758, "\u9e3f": 8759, "\u9e43": 8760, "\u9e45": 8761, "\u9e48": 8762, "\u9e49": 8763, "\u9e4a": 8764, "\u9e4f": 8765, "\u9e58": 8766, "\u9e5b": 8767, "\u9e64": 8768, "\u9e66": 8769, "\u9e6b": 8770, "\u9e6d": 8771, "\u9e70": 8772, "\u9e75": 8773, "\u9e78": 8774, "\u9e79": 8775, "\u9e7c": 8776, "\u9e7d": 8777, "\u9e7f": 8778, "\u9e8b": 8779, "\u9e92": 8780, "\u9e93": 8781, "\u9e97": 8782, "\u9e9d": 8783, "\u9e9f": 8784, "\u9ea4": 8785, "\u9ea5": 8786, "\u9ea6": 8787, "\u9eb4": 8788, "\u9eb5": 8789, "\u9eb9": 8790, "\u9eba": 8791, "\u9ebb": 8792, "\u9ebc": 8793, "\u9ebd": 8794, "\u9ebe": 8795, "\u9ebf": 8796, "\u9ec3": 8797, "\u9ec4": 8798, "\u9ecd": 8799, "\u9ece": 8800, "\u9ecf": 8801, "\u9ed1": 8802, "\u9ed2": 8803, "\u9ed4": 8804, "\u9ed8": 8805, "\u9ed9": 8806, "\u9edb": 8807, "\u9edc": 8808, "\u9ede": 8809, "\u9ee8": 8810, "\u9eef": 8811, "\u9ef4": 8812, "\u9efb": 8813, "\u9f0e": 8814, "\u9f10": 8815, "\u9f13": 8816, "\u9f20": 8817, "\u9f29": 8818, "\u9f2c": 8819, "\u9f3b": 8820, "\u9f4a": 8821, "\u9f4b": 8822, "\u9f50": 8823, "\u9f52": 8824, "\u9f61": 8825, "\u9f62": 8826, "\u9f63": 8827, "\u9f66": 8828, "\u9f67": 8829, "\u9f7f": 8830, "\u9f84": 8831, "\u9f88": 8832, "\u9f8d": 8833, "\u9f90": 8834, "\u9f94": 8835, "\u9f95": 8836, "\u9f99": 8837, "\u9f9a": 8838, "\u9f9b": 8839, "\u9f9c": 8840, "\u9f9f": 8841, "\u9fa2": 8842, "\uac00": 8843, "\uac01": 8844, "\uac04": 8845, "\uac07": 8846, "\uac08": 8847, "\uac10": 8848, "\uac11": 8849, "\uac12": 8850, "\uac13": 8851, "\uac14": 8852, "\uac15": 8853, "\uac16": 8854, "\uac19": 8855, "\uac1a": 8856, "\uac1c": 8857, "\uac1d": 8858, "\uac24": 8859, "\uac2f": 8860, "\uac31": 8861, "\uac40": 8862, "\uac70": 8863, "\uac71": 8864, "\uac74": 8865, "\uac77": 8866, "\uac78": 8867, "\uac80": 8868, "\uac81": 8869, "\uac83": 8870, "\uac89": 8871, "\uac8c": 8872, "\uac90": 8873, "\uac94": 8874, "\uac9f": 8875, "\uaca0": 8876, "\uaca8": 8877, "\uaca9": 8878, "\uacaa": 8879, "\uacac": 8880, "\uacb0": 8881, "\uacb8": 8882, "\uacb9": 8883, "\uacbc": 8884, "\uacbd": 8885, "\uacc1": 8886, "\uacc4": 8887, "\uace0": 8888, "\uace1": 8889, "\uace4": 8890, "\uace7": 8891, "\uace8": 8892, "\uacf0": 8893, "\uacf1": 8894, "\uacf3": 8895, "\uacf5": 8896, "\uacf6": 8897, "\uacfc": 8898, "\uacfd": 8899, "\uad00": 8900, "\uad04": 8901, "\uad0c": 8902, "\uad11": 8903, "\uad1c": 8904, "\uad34": 8905, "\uad49": 8906, "\uad50": 8907, "\uad6c": 8908, "\uad6d": 8909, "\uad70": 8910, "\uad73": 8911, "\uad74": 8912, "\uad75": 8913, "\uad7d": 8914, "\uad7f": 8915, "\uad81": 8916, "\uad8c": 8917, "\uad90": 8918, "\uada4": 8919, "\uadc0": 8920, "\uadc4": 8921, "\uaddc": 8922, "\uade0": 8923, "\uadf8": 8924, "\uadf9": 8925, "\uadfc": 8926, "\uae00": 8927, "\uae08": 8928, "\uae09": 8929, "\uae0b": 8930, "\uae0d": 8931, "\uae30": 8932, "\uae34": 8933, "\uae38": 8934, "\uae40": 8935, "\uae41": 8936, "\uae43": 8937, "\uae4a": 8938, "\uae4c": 8939, "\uae4e": 8940, "\uae50": 8941, "\uae54": 8942, "\uae5c": 8943, "\uae5d": 8944, "\uae65": 8945, "\uae68": 8946, "\uaebc": 8947, "\uaebe": 8948, "\uaecd": 8949, "\uaecf": 8950, "\uaed8": 8951, "\uaef4": 8952, "\uaf08": 8953, "\uaf2c": 8954, "\uaf2d": 8955, "\uaf34": 8956, "\uaf3c": 8957, "\uaf3d": 8958, "\uaf43": 8959, "\uaf64": 8960, "\uaf80": 8961, "\uafb8": 8962, "\uafbc": 8963, "\uafc0": 8964, "\uafc8": 8965, "\uafd4": 8966, "\uafe8": 8967, "\ub00c": 8968, "\ub010": 8969, "\ub044": 8970, "\ub048": 8971, "\ub04a": 8972, "\ub04c": 8973, "\ub053": 8974, "\ub054": 8975, "\ub057": 8976, "\ub05d": 8977, "\ub07c": 8978, "\ub080": 8979, "\ub084": 8980, "\ub08c": 8981, "\ub098": 8982, "\ub099": 8983, "\ub09c": 8984, "\ub0a0": 8985, "\ub0a1": 8986, "\ub0a8": 8987, "\ub0a9": 8988, "\ub0ab": 8989, "\ub0ac": 8990, "\ub0ad": 8991, "\ub0ae": 8992, "\ub0af": 8993, "\ub0b1": 8994, "\ub0b3": 8995, "\ub0b4": 8996, "\ub0b8": 8997, "\ub0bc": 8998, "\ub0c4": 8999, "\ub0c8": 9000, "\ub0c9": 9001, "\ub0d0": 9002, "\ub0e5": 9003, "\ub108": 9004, "\ub10c": 9005, "\ub110": 9006, "\ub113": 9007, "\ub118": 9008, "\ub11b": 9009, "\ub123": 9010, "\ub124": 9011, "\ub125": 9012, "\ub128": 9013, "\ub12c": 9014, "\ub137": 9015, "\ub140": 9016, "\ub141": 9017, "\ub144": 9018, "\ub150": 9019, "\ub154": 9020, "\ub155": 9021, "\ub178": 9022, "\ub179": 9023, "\ub17c": 9024, "\ub180": 9025, "\ub188": 9026, "\ub18d": 9027, "\ub192": 9028, "\ub193": 9029, "\ub1cc": 9030, "\ub1e8": 9031, "\ub204": 9032, "\ub205": 9033, "\ub208": 9034, "\ub20c": 9035, "\ub220": 9036, "\ub258": 9037, "\ub25c": 9038, "\ub274": 9039, "\ub284": 9040, "\ub290": 9041, "\ub291": 9042, "\ub294": 9043, "\ub298": 9044, "\ub299": 9045, "\ub2a5": 9046, "\ub2a6": 9047, "\ub2ac": 9048, "\ub2c8": 9049, "\ub2c9": 9050, "\ub2cc": 9051, "\ub2d0": 9052, "\ub2d8": 9053, "\ub2db": 9054, "\ub2dd": 9055, "\ub2e4": 9056, "\ub2e5": 9057, "\ub2e6": 9058, "\ub2e8": 9059, "\ub2eb": 9060, "\ub2ec": 9061, "\ub2ed": 9062, "\ub2ee": 9063, "\ub2f4": 9064, "\ub2f5": 9065, "\ub2f7": 9066, "\ub2f9": 9067, "\ub2ff": 9068, "\ub300": 9069, "\ub304": 9070, "\ub308": 9071, "\ub310": 9072, "\ub313": 9073, "\ub354": 9074, "\ub355": 9075, "\ub358": 9076, "\ub35c": 9077, "\ub35f": 9078, "\ub364": 9079, "\ub367": 9080, "\ub369": 9081, "\ub36e": 9082, "\ub370": 9083, "\ub371": 9084, "\ub374": 9085, "\ub378": 9086, "\ub3c4": 9087, "\ub3c5": 9088, "\ub3c8": 9089, "\ub3cb": 9090, "\ub3cc": 9091, "\ub3d4": 9092, "\ub3d5": 9093, "\ub3d7": 9094, "\ub3d9": 9095, "\ub3fc": 9096, "\ub410": 9097, "\ub418": 9098, "\ub41c": 9099, "\ub420": 9100, "\ub428": 9101, "\ub450": 9102, "\ub451": 9103, "\ub454": 9104, "\ub458": 9105, "\ub460": 9106, "\ub465": 9107, "\ub480": 9108, "\ub4a4": 9109, "\ub4b7": 9110, "\ub4c0": 9111, "\ub4c8": 9112, "\ub4dc": 9113, "\ub4dd": 9114, "\ub4e0": 9115, "\ub4e3": 9116, "\ub4e4": 9117, "\ub4ec": 9118, "\ub4ed": 9119, "\ub4ef": 9120, "\ub4f1": 9121, "\ub514": 9122, "\ub515": 9123, "\ub518": 9124, "\ub51c": 9125, "\ub525": 9126, "\ub527": 9127, "\ub529": 9128, "\ub52a": 9129, "\ub530": 9130, "\ub531": 9131, "\ub534": 9132, "\ub538": 9133, "\ub543": 9134, "\ub544": 9135, "\ub545": 9136, "\ub54c": 9137, "\ub5a0": 9138, "\ub5a1": 9139, "\ub5a4": 9140, "\ub5a8": 9141, "\ub5bb": 9142, "\ub5bc": 9143, "\ub610": 9144, "\ub611": 9145, "\ub69c": 9146, "\ub69d": 9147, "\ub6ab": 9148, "\ub6b1": 9149, "\ub6f0": 9150, "\ub728": 9151, "\ub72c": 9152, "\ub73b": 9153, "\ub744": 9154, "\ub760": 9155, "\ub764": 9156, "\ub77c": 9157, "\ub77d": 9158, "\ub780": 9159, "\ub784": 9160, "\ub78c": 9161, "\ub78d": 9162, "\ub790": 9163, "\ub791": 9164, "\ub798": 9165, "\ub799": 9166, "\ub79c": 9167, "\ub7a8": 9168, "\ub7a9": 9169, "\ub7ab": 9170, "\ub7ac": 9171, "\ub7ad": 9172, "\ub7b4": 9173, "\ub7b5": 9174, "\ub7c9": 9175, "\ub7ec": 9176, "\ub7ed": 9177, "\ub7f0": 9178, "\ub7f4": 9179, "\ub7fc": 9180, "\ub7fd": 9181, "\ub7ff": 9182, "\ub800": 9183, "\ub801": 9184, "\ub807": 9185, "\ub808": 9186, "\ub809": 9187, "\ub80c": 9188, "\ub810": 9189, "\ub818": 9190, "\ub81b": 9191, "\ub824": 9192, "\ub825": 9193, "\ub828": 9194, "\ub82c": 9195, "\ub834": 9196, "\ub835": 9197, "\ub837": 9198, "\ub838": 9199, "\ub839": 9200, "\ub840": 9201, "\ub85c": 9202, "\ub85d": 9203, "\ub860": 9204, "\ub864": 9205, "\ub86c": 9206, "\ub86d": 9207, "\ub86f": 9208, "\ub871": 9209, "\ub8b0": 9210, "\ub8cc": 9211, "\ub8e1": 9212, "\ub8e8": 9213, "\ub8e9": 9214, "\ub8ec": 9215, "\ub8f0": 9216, "\ub8f8": 9217, "\ub8f9": 9218, "\ub8fb": 9219, "\ub8fd": 9220, "\ub904": 9221, "\ub918": 9222, "\ub93c": 9223, "\ub958": 9224, "\ub959": 9225, "\ub95c": 9226, "\ub960": 9227, "\ub968": 9228, "\ub96d": 9229, "\ub974": 9230, "\ub975": 9231, "\ub978": 9232, "\ub97c": 9233, "\ub984": 9234, "\ub987": 9235, "\ub989": 9236, "\ub98e": 9237, "\ub9ac": 9238, "\ub9ad": 9239, "\ub9b0": 9240, "\ub9b4": 9241, "\ub9bc": 9242, "\ub9bd": 9243, "\ub9bf": 9244, "\ub9c1": 9245, "\ub9c8": 9246, "\ub9c9": 9247, "\ub9cc": 9248, "\ub9ce": 9249, "\ub9cf": 9250, "\ub9d0": 9251, "\ub9d1": 9252, "\ub9d8": 9253, "\ub9db": 9254, "\ub9dd": 9255, "\ub9de": 9256, "\ub9e1": 9257, "\ub9e4": 9258, "\ub9e5": 9259, "\ub9e8": 9260, "\ub9f5": 9261, "\ub9f7": 9262, "\ub9f9": 9263, "\ub9fa": 9264, "\uba38": 9265, "\uba39": 9266, "\uba3c": 9267, "\uba40": 9268, "\uba48": 9269, "\uba4b": 9270, "\uba4d": 9271, "\uba54": 9272, "\uba55": 9273, "\uba58": 9274, "\uba5c": 9275, "\uba64": 9276, "\uba67": 9277, "\uba70": 9278, "\uba74": 9279, "\uba78": 9280, "\uba85": 9281, "\uba87": 9282, "\ubaa8": 9283, "\ubaa9": 9284, "\ubaab": 9285, "\ubaac": 9286, "\ubab0": 9287, "\ubab8": 9288, "\ubab9": 9289, "\ubabb": 9290, "\ubabd": 9291, "\ubafc": 9292, "\ubb18": 9293, "\ubb34": 9294, "\ubb35": 9295, "\ubb36": 9296, "\ubb38": 9297, "\ubb3b": 9298, "\ubb3c": 9299, "\ubb44": 9300, "\ubb47": 9301, "\ubb49": 9302, "\ubb50": 9303, "\ubb54": 9304, "\ubb8c": 9305, "\ubba4": 9306, "\ubbac": 9307, "\ubbc0": 9308, "\ubbf8": 9309, "\ubbf9": 9310, "\ubbfc": 9311, "\ubbff": 9312, "\ubc00": 9313, "\ubc0b": 9314, "\ubc0d": 9315, "\ubc0f": 9316, "\ubc11": 9317, "\ubc14": 9318, "\ubc15": 9319, "\ubc16": 9320, "\ubc18": 9321, "\ubc1b": 9322, "\ubc1c": 9323, "\ubc1d": 9324, "\ubc1f": 9325, "\ubc24": 9326, "\ubc25": 9327, "\ubc29": 9328, "\ubc2d": 9329, "\ubc30": 9330, "\ubc31": 9331, "\ubc34": 9332, "\ubc38": 9333, "\ubc40": 9334, "\ubc45": 9335, "\ubc84": 9336, "\ubc85": 9337, "\ubc88": 9338, "\ubc8c": 9339, "\ubc94": 9340, "\ubc95": 9341, "\ubc97": 9342, "\ubc9a": 9343, "\ubca0": 9344, "\ubca1": 9345, "\ubca4": 9346, "\ubca8": 9347, "\ubcb3": 9348, "\ubcb5": 9349, "\ubcbc": 9350, "\ubcbd": 9351, "\ubcc0": 9352, "\ubcc4": 9353, "\ubccd": 9354, "\ubcd1": 9355, "\ubcf4": 9356, "\ubcf5": 9357, "\ubcf8": 9358, "\ubcfc": 9359, "\ubd04": 9360, "\ubd07": 9361, "\ubd09": 9362, "\ubd10": 9363, "\ubd24": 9364, "\ubd80": 9365, "\ubd81": 9366, "\ubd84": 9367, "\ubd88": 9368, "\ubd89": 9369, "\ubd90": 9370, "\ubd93": 9371, "\ubd95": 9372, "\ubd99": 9373, "\ubdd4": 9374, "\ubdf0": 9375, "\ube0c": 9376, "\ube10": 9377, "\ube14": 9378, "\ube44": 9379, "\ube45": 9380, "\ube48": 9381, "\ube4c": 9382, "\ube54": 9383, "\ube57": 9384, "\ube59": 9385, "\ube5a": 9386, "\ube5b": 9387, "\ube60": 9388, "\ube68": 9389, "\ube75": 9390, "\ube7c": 9391, "\ube7d": 9392, "\ubed0": 9393, "\ubed4": 9394, "\ubed7": 9395, "\ubf08": 9396, "\ubf51": 9397, "\ubfb0": 9398, "\ubfcc": 9399, "\ubfd0": 9400, "\ubfd4": 9401, "\uc058": 9402, "\uc05c": 9403, "\uc068": 9404, "\uc0ac": 9405, "\uc0ad": 9406, "\uc0b0": 9407, "\uc0b4": 9408, "\uc0b6": 9409, "\uc0bc": 9410, "\uc0bd": 9411, "\uc0bf": 9412, "\uc0c0": 9413, "\uc0c1": 9414, "\uc0c8": 9415, "\uc0c9": 9416, "\uc0cc": 9417, "\uc0d0": 9418, "\uc0d8": 9419, "\uc0dd": 9420, "\uc0e4": 9421, "\uc0ec": 9422, "\uc0f9": 9423, "\uc100": 9424, "\uc11c": 9425, "\uc11d": 9426, "\uc11e": 9427, "\uc120": 9428, "\uc124": 9429, "\uc12c": 9430, "\uc12d": 9431, "\uc12f": 9432, "\uc130": 9433, "\uc131": 9434, "\uc138": 9435, "\uc139": 9436, "\uc13c": 9437, "\uc140": 9438, "\uc148": 9439, "\uc149": 9440, "\uc14b": 9441, "\uc154": 9442, "\uc158": 9443, "\uc15c": 9444, "\uc168": 9445, "\uc170": 9446, "\uc178": 9447, "\uc18c": 9448, "\uc18d": 9449, "\uc190": 9450, "\uc194": 9451, "\uc19c": 9452, "\uc19f": 9453, "\uc1a1": 9454, "\uc1c4": 9455, "\uc1e0": 9456, "\uc1fc": 9457, "\uc200": 9458, "\uc20d": 9459, "\uc218": 9460, "\uc219": 9461, "\uc21c": 9462, "\uc220": 9463, "\uc228": 9464, "\uc22b": 9465, "\uc22d": 9466, "\uc232": 9467, "\uc250": 9468, "\uc26c": 9469, "\uc274": 9470, "\uc27d": 9471, "\uc288": 9472, "\uc28c": 9473, "\uc290": 9474, "\uc298": 9475, "\uc29b": 9476, "\uc2a4": 9477, "\uc2a8": 9478, "\uc2ac": 9479, "\uc2ad": 9480, "\uc2b4": 9481, "\uc2b5": 9482, "\uc2b7": 9483, "\uc2b9": 9484, "\uc2dc": 9485, "\uc2dd": 9486, "\uc2e0": 9487, "\uc2e3": 9488, "\uc2e4": 9489, "\uc2eb": 9490, "\uc2ec": 9491, "\uc2ed": 9492, "\uc2ef": 9493, "\uc2f1": 9494, "\uc2f6": 9495, "\uc2f8": 9496, "\uc2f9": 9497, "\uc2fc": 9498, "\uc300": 9499, "\uc30d": 9500, "\uc313": 9501, "\uc368": 9502, "\uc369": 9503, "\uc36c": 9504, "\uc370": 9505, "\uc37c": 9506, "\uc3d8": 9507, "\uc3dc": 9508, "\uc3df": 9509, "\uc464": 9510, "\uc4f0": 9511, "\uc4f4": 9512, "\uc4f8": 9513, "\uc500": 9514, "\uc50c": 9515, "\uc528": 9516, "\uc529": 9517, "\uc52c": 9518, "\uc544": 9519, "\uc545": 9520, "\uc548": 9521, "\uc549": 9522, "\uc54a": 9523, "\uc54c": 9524, "\uc553": 9525, "\uc554": 9526, "\uc555": 9527, "\uc557": 9528, "\uc558": 9529, "\uc559": 9530, "\uc55e": 9531, "\uc560": 9532, "\uc561": 9533, "\uc564": 9534, "\uc568": 9535, "\uc571": 9536, "\uc575": 9537, "\uc57c": 9538, "\uc57d": 9539, "\uc580": 9540, "\uc584": 9541, "\uc587": 9542, "\uc591": 9543, "\uc595": 9544, "\uc598": 9545, "\uc5b4": 9546, "\uc5b5": 9547, "\uc5b8": 9548, "\uc5b9": 9549, "\uc5bb": 9550, "\uc5bc": 9551, "\uc5bd": 9552, "\uc5c4": 9553, "\uc5c5": 9554, "\uc5c6": 9555, "\uc5c7": 9556, "\uc5c8": 9557, "\uc5c9": 9558, "\uc5d0": 9559, "\uc5d1": 9560, "\uc5d4": 9561, "\uc5d8": 9562, "\uc5e0": 9563, "\uc5e3": 9564, "\uc5ec": 9565, "\uc5ed": 9566, "\uc5ee": 9567, "\uc5f0": 9568, "\uc5f4": 9569, "\uc5fc": 9570, "\uc5fd": 9571, "\uc5ff": 9572, "\uc600": 9573, "\uc601": 9574, "\uc606": 9575, "\uc608": 9576, "\uc60c": 9577, "\uc610": 9578, "\uc61b": 9579, "\uc624": 9580, "\uc625": 9581, "\uc628": 9582, "\uc62c": 9583, "\uc62e": 9584, "\uc633": 9585, "\uc634": 9586, "\uc635": 9587, "\uc637": 9588, "\uc639": 9589, "\uc640": 9590, "\uc644": 9591, "\uc648": 9592, "\uc653": 9593, "\uc654": 9594, "\uc655": 9595, "\uc65c": 9596, "\uc678": 9597, "\uc67c": 9598, "\uc694": 9599, "\uc695": 9600, "\uc698": 9601, "\uc6a4": 9602, "\uc6a9": 9603, "\uc6b0": 9604, "\uc6b1": 9605, "\uc6b4": 9606, "\uc6b8": 9607, "\uc6c0": 9608, "\uc6c3": 9609, "\uc6c5": 9610, "\uc6cc": 9611, "\uc6d0": 9612, "\uc6d4": 9613, "\uc6e0": 9614, "\uc6e8": 9615, "\uc6ec": 9616, "\uc6f0": 9617, "\uc6f9": 9618, "\uc704": 9619, "\uc705": 9620, "\uc708": 9621, "\uc70c": 9622, "\uc717": 9623, "\uc719": 9624, "\uc720": 9625, "\uc721": 9626, "\uc724": 9627, "\uc728": 9628, "\uc735": 9629, "\uc73c": 9630, "\uc73d": 9631, "\uc740": 9632, "\uc744": 9633, "\uc74c": 9634, "\uc74d": 9635, "\uc751": 9636, "\uc758": 9637, "\uc774": 9638, "\uc775": 9639, "\uc778": 9640, "\uc77c": 9641, "\uc77d": 9642, "\uc783": 9643, "\uc784": 9644, "\uc785": 9645, "\uc787": 9646, "\uc788": 9647, "\uc789": 9648, "\uc78a": 9649, "\uc78e": 9650, "\uc790": 9651, "\uc791": 9652, "\uc794": 9653, "\uc798": 9654, "\uc7a0": 9655, "\uc7a1": 9656, "\uc7a5": 9657, "\uc7a6": 9658, "\uc7ac": 9659, "\uc7ad": 9660, "\uc7c1": 9661, "\uc7c8": 9662, "\uc800": 9663, "\uc801": 9664, "\uc804": 9665, "\uc808": 9666, "\uc80a": 9667, "\uc810": 9668, "\uc811": 9669, "\uc815": 9670, "\uc816": 9671, "\uc81c": 9672, "\uc81d": 9673, "\uc820": 9674, "\uc824": 9675, "\uc838": 9676, "\uc84c": 9677, "\uc870": 9678, "\uc871": 9679, "\uc874": 9680, "\uc878": 9681, "\uc880": 9682, "\uc881": 9683, "\uc885": 9684, "\uc88b": 9685, "\uc88c": 9686, "\uc8c4": 9687, "\uc8e0": 9688, "\uc8fc": 9689, "\uc8fd": 9690, "\uc900": 9691, "\uc904": 9692, "\uc90c": 9693, "\uc911": 9694, "\uc918": 9695, "\uc92c": 9696, "\uc950": 9697, "\uc96c": 9698, "\uc970": 9699, "\uc988": 9700, "\uc989": 9701, "\uc98c": 9702, "\uc990": 9703, "\uc998": 9704, "\uc99d": 9705, "\uc9c0": 9706, "\uc9c1": 9707, "\uc9c4": 9708, "\uc9c8": 9709, "\uc9d0": 9710, "\uc9d1": 9711, "\uc9d3": 9712, "\uc9d5": 9713, "\uc9d9": 9714, "\uc9dc": 9715, "\uc9dd": 9716, "\uc9e7": 9717, "\uc9f1": 9718, "\uc9f8": 9719, "\uca4c": 9720, "\uca54": 9721, "\ucabd": 9722, "\ucad3": 9723, "\ucb49": 9724, "\ucbd4": 9725, "\ucbe4": 9726, "\ucc0c": 9727, "\ucc0d": 9728, "\ucc14": 9729, "\ucc28": 9730, "\ucc29": 9731, "\ucc2c": 9732, "\ucc2e": 9733, "\ucc30": 9734, "\ucc38": 9735, "\ucc3d": 9736, "\ucc3e": 9737, "\ucc44": 9738, "\ucc45": 9739, "\ucc48": 9740, "\ucc4c": 9741, "\ucc54": 9742, "\ucc59": 9743, "\ucc98": 9744, "\ucc99": 9745, "\ucc9c": 9746, "\ucca0": 9747, "\ucca8": 9748, "\ucca9": 9749, "\uccab": 9750, "\uccad": 9751, "\uccb4": 9752, "\uccb8": 9753, "\uccbc": 9754, "\uccd0": 9755, "\ucce4": 9756, "\ucd08": 9757, "\ucd09": 9758, "\ucd0c": 9759, "\ucd1b": 9760, "\ucd1d": 9761, "\ucd28": 9762, "\ucd2c": 9763, "\ucd5c": 9764, "\ucd94": 9765, "\ucd95": 9766, "\ucd98": 9767, "\ucd9c": 9768, "\ucda4": 9769, "\ucda9": 9770, "\ucdb0": 9771, "\ucdcc": 9772, "\ucde8": 9773, "\uce04": 9774, "\uce20": 9775, "\uce21": 9776, "\uce30": 9777, "\uce35": 9778, "\uce58": 9779, "\uce59": 9780, "\uce5c": 9781, "\uce60": 9782, "\uce68": 9783, "\uce69": 9784, "\uce6d": 9785, "\uce74": 9786, "\uce78": 9787, "\uce7c": 9788, "\uce84": 9789, "\uce85": 9790, "\uce89": 9791, "\uce90": 9792, "\uce94": 9793, "\uce98": 9794, "\ucea0": 9795, "\ucea1": 9796, "\ucea3": 9797, "\ucee4": 9798, "\ucee8": 9799, "\uceeb": 9800, "\uceec": 9801, "\ucef4": 9802, "\ucef5": 9803, "\ucef7": 9804, "\ucef8": 9805, "\ucf00": 9806, "\ucf04": 9807, "\ucf08": 9808, "\ucf13": 9809, "\ucf1c": 9810, "\ucf30": 9811, "\ucf54": 9812, "\ucf55": 9813, "\ucf58": 9814, "\ucf5c": 9815, "\ucf64": 9816, "\ucf65": 9817, "\ucf67": 9818, "\ucf69": 9819, "\ucf70": 9820, "\ucf8c": 9821, "\ucfb0": 9822, "\ucfc4": 9823, "\ucfe0": 9824, "\ucfe1": 9825, "\ucfe4": 9826, "\ucfe8": 9827, "\ucffc": 9828, "\ud018": 9829, "\ud034": 9830, "\ud038": 9831, "\ud050": 9832, "\ud058": 9833, "\ud06c": 9834, "\ud070": 9835, "\ud074": 9836, "\ud07c": 9837, "\ud0a4": 9838, "\ud0a5": 9839, "\ud0a8": 9840, "\ud0ac": 9841, "\ud0b4": 9842, "\ud0b7": 9843, "\ud0b9": 9844, "\ud0c0": 9845, "\ud0c1": 9846, "\ud0c4": 9847, "\ud0c8": 9848, "\ud0d0": 9849, "\ud0d1": 9850, "\ud0d3": 9851, "\ud0d4": 9852, "\ud0d5": 9853, "\ud0dc": 9854, "\ud0dd": 9855, "\ud0e0": 9856, "\ud0e4": 9857, "\ud0ec": 9858, "\ud0ed": 9859, "\ud0f1": 9860, "\ud130": 9861, "\ud131": 9862, "\ud134": 9863, "\ud138": 9864, "\ud140": 9865, "\ud14c": 9866, "\ud14d": 9867, "\ud150": 9868, "\ud154": 9869, "\ud15c": 9870, "\ud15d": 9871, "\ud188": 9872, "\ud1a0": 9873, "\ud1a1": 9874, "\ud1a4": 9875, "\ud1a8": 9876, "\ud1b0": 9877, "\ud1b1": 9878, "\ud1b5": 9879, "\ud1f4": 9880, "\ud22c": 9881, "\ud230": 9882, "\ud234": 9883, "\ud23c": 9884, "\ud241": 9885, "\ud280": 9886, "\ud29c": 9887, "\ud2a0": 9888, "\ud2ac": 9889, "\ud2b8": 9890, "\ud2b9": 9891, "\ud2bc": 9892, "\ud2c0": 9893, "\ud2c8": 9894, "\ud2f0": 9895, "\ud2f1": 9896, "\ud2f4": 9897, "\ud2f8": 9898, "\ud300": 9899, "\ud305": 9900, "\ud30c": 9901, "\ud30d": 9902, "\ud310": 9903, "\ud314": 9904, "\ud31c": 9905, "\ud31d": 9906, "\ud31f": 9907, "\ud321": 9908, "\ud328": 9909, "\ud329": 9910, "\ud32c": 9911, "\ud33d": 9912, "\ud37c": 9913, "\ud380": 9914, "\ud384": 9915, "\ud38c": 9916, "\ud391": 9917, "\ud398": 9918, "\ud399": 9919, "\ud39c": 9920, "\ud3a0": 9921, "\ud3ab": 9922, "\ud3b4": 9923, "\ud3b8": 9924, "\ud3bc": 9925, "\ud3c9": 9926, "\ud3d0": 9927, "\ud3ec": 9928, "\ud3ed": 9929, "\ud3f0": 9930, "\ud3f4": 9931, "\ud3fc": 9932, "\ud401": 9933, "\ud45c": 9934, "\ud478": 9935, "\ud47c": 9936, "\ud480": 9937, "\ud488": 9938, "\ud48b": 9939, "\ud48d": 9940, "\ud4e8": 9941, "\ud504": 9942, "\ud508": 9943, "\ud50c": 9944, "\ud514": 9945, "\ud53c": 9946, "\ud53d": 9947, "\ud540": 9948, "\ud544": 9949, "\ud54d": 9950, "\ud551": 9951, "\ud558": 9952, "\ud559": 9953, "\ud55c": 9954, "\ud560": 9955, "\ud568": 9956, "\ud569": 9957, "\ud56b": 9958, "\ud56d": 9959, "\ud574": 9960, "\ud575": 9961, "\ud578": 9962, "\ud584": 9963, "\ud587": 9964, "\ud588": 9965, "\ud589": 9966, "\ud5a5": 9967, "\ud5c8": 9968, "\ud5cc": 9969, "\ud5d0": 9970, "\ud5d8": 9971, "\ud5dd": 9972, "\ud5e4": 9973, "\ud5e8": 9974, "\ud5ec": 9975, "\ud600": 9976, "\ud601": 9977, "\ud604": 9978, "\ud608": 9979, "\ud610": 9980, "\ud611": 9981, "\ud614": 9982, "\ud615": 9983, "\ud61c": 9984, "\ud638": 9985, "\ud639": 9986, "\ud63c": 9987, "\ud640": 9988, "\ud648": 9989, "\ud649": 9990, "\ud64b": 9991, "\ud64d": 9992, "\ud654": 9993, "\ud655": 9994, "\ud658": 9995, "\ud65c": 9996, "\ud669": 9997, "\ud68c": 9998, "\ud68d": 9999, "\ud69f": 10000, "\ud6a1": 10001, "\ud6a8": 10002, "\ud6c4": 10003, "\ud6c8": 10004, "\ud6cc": 10005, "\ud6d4": 10006, "\ud6d7": 10007, "\ud6e8": 10008, "\ud6fc": 10009, "\ud718": 10010, "\ud720": 10011, "\ud729": 10012, "\ud734": 10013, "\ud749": 10014, "\ud750": 10015, "\ud751": 10016, "\ud754": 10017, "\ud758": 10018, "\ud759": 10019, "\ud761": 10020, "\ud765": 10021, "\ud769": 10022, "\ud76c": 10023, "\ud770": 10024, "\ud788": 10025, "\ud78c": 10026, "\ud790": 10027, "\ud798": 10028, "\ud799": 10029, "\ufa11": 10030, "\ufb90": 10031, "\ufb9f": 10032, "\ufba8": 10033, "\ufbaf": 10034, "\ufbfd": 10035, "\ufbff": 10036, "\ufd3e": 10037, "\ufd3f": 10038, "\ufdf2": 10039, "\ufdfa": 10040, "\ufe30": 10041, "\ufe50": 10042, "\ufe51": 10043, "\ufe54": 10044, "\ufe55": 10045, "\ufe5d": 10046, "\ufe5e": 10047, "\ufe63": 10048, "\ufe8d": 10049, "\ufe8e": 10050, "\ufe97": 10051, "\ufee3": 10052, "\ufeed": 10053, "\ufeee": 10054, "\uff01": 10055, "\uff02": 10056, "\uff03": 10057, "\uff05": 10058, "\uff06": 10059, "\uff08": 10060, "\uff09": 10061, "\uff0a": 10062, "\uff0b": 10063, "\uff0c": 10064, "\uff0d": 10065, "\uff0e": 10066, "\uff0f": 10067, "\uff10": 10068, "\uff11": 10069, "\uff12": 10070, "\uff13": 10071, "\uff14": 10072, "\uff15": 10073, "\uff16": 10074, "\uff17": 10075, "\uff18": 10076, "\uff19": 10077, "\uff1a": 10078, "\uff1b": 10079, "\uff1c": 10080, "\uff1d": 10081, "\uff1e": 10082, "\uff1f": 10083, "\uff20": 10084, "\uff21": 10085, "\uff22": 10086, "\uff23": 10087, "\uff2d": 10088, "\uff33": 10089, "\uff38": 10090, "\uff3b": 10091, "\uff3c": 10092, "\uff3d": 10093, "\uff3f": 10094, "\uff5c": 10095, "\uff5e": 10096, "\uff61": 10097, "\uff62": 10098, "\uff63": 10099, "\uff64": 10100, "\uff65": 10101, "\ud867\udf7e": 10102, "\ud867\udf8c": 10103, "de": 10104, "the": 10105, "in": 10106, "##s": 10107, "of": 10108, "la": 10109, "en": 10110, "and": 10111, "##e": 10112, "##a": 10113, "to": 10114, "##n": 10115, "##i": 10116, "The": 10117, "der": 10118, "un": 10119, "di": 10120, "que": 10121, "\u043d\u0430": 10122, "##t": 10123, "is": 10124, "el": 10125, "se": 10126, "del": 10127, "die": 10128, "##r": 10129, "und": 10130, "et": 10131, "na": 10132, "##o": 10133, "was": 10134, "on": 10135, "##en": 10136, "\u00e4r": 10137, "##u": 10138, "des": 10139, "den": 10140, "le": 10141, "for": 10142, "da": 10143, "je": 10144, "van": 10145, "as": 10146, "##m": 10147, "sa": 10148, "do": 10149, "10": 10150, "an": 10151, "les": 10152, "una": 10153, "il": 10154, "by": 10155, "og": 10156, "##y": 10157, "2011": 10158, "La": 10159, "at": 10160, "##l": 10161, "##d": 10162, "er": 10163, "al": 10164, "##er": 10165, "von": 10166, "In": 10167, "du": 10168, "with": 10169, "av": 10170, "##es": 10171, "med": 10172, "con": 10173, "##k": 10174, "2010": 10175, "est": 10176, "och": 10177, "per": 10178, "##\u0430": 10179, "2000": 10180, "som": 10181, "los": 10182, "por": 10183, "nga": 10184, "2012": 10185, "12": 10186, "het": 10187, "from": 10188, "that": 10189, "De": 10190, "##\u0438": 10191, "no": 10192, "11": 10193, "2014": 10194, "2009": 10195, "es": 10196, "20": 10197, "su": 10198, "ISBN": 10199, "een": 10200, "ja": 10201, "2007": 10202, "2008": 10203, "km": 10204, "##\u0435": 10205, "##an": 10206, "2013": 10207, "15": 10208, "om": 10209, "\u0641\u064a": 10210, "im": 10211, "com": 10212, "##ta": 10213, "2006": 10214, "dan": 10215, "##te": 10216, "p\u00e5": 10217, "18": 10218, "##na": 10219, "para": 10220, "mit": 10221, "2015": 10222, "als": 10223, "El": 10224, "como": 10225, "his": 10226, "##\u0443": 10227, "ha": 10228, "##da": 10229, "##ing": 10230, "une": 10231, "...": 10232, "24": 10233, "\u0437\u0430": 10234, "Den": 10235, "Die": 10236, "##h": 10237, "##ne": 10238, "\u062f\u0631": 10239, "##g": 10240, "##\u043c": 10241, "das": 10242, "En": 10243, "30": 10244, "##in": 10245, "##re": 10246, "14": 10247, "par": 10248, "13": 10249, "16": 10250, "##us": 10251, "2005": 10252, "##de": 10253, "\u0458\u0435": 10254, "2016": 10255, "\u00e9s": 10256, "au": 10257, "25": 10258, "000": 10259, "dans": 10260, "he": 10261, "che": 10262, "##on": 10263, "2004": 10264, "yang": 10265, "em": 10266, "##\u043d": 10267, "dem": 10268, "##ch": 10269, "19": 10270, "it": 10271, "2001": 10272, "17": 10273, "\u00b0C": 10274, "til": 10275, "2002": 10276, "\u0441\u0435": 10277, "##\u06cc": 10278, "han": 10279, "##ia": 10280, "Le": 10281, "Il": 10282, "wurde": 10283, "##le": 10284, "las": 10285, "della": 10286, "New": 10287, "##ra": 10288, "\u0645\u0646": 10289, "ein": 10290, "##is": 10291, "##\u044b": 10292, "um": 10293, "si": 10294, "2003": 10295, "21": 10296, "\u043f\u043e": 10297, "ist": 10298, "var": 10299, "Species": 10300, "are": 10301, "2017": 10302, "op": 10303, "zu": 10304, "##z": 10305, "22": 10306, "f\u00fcr": 10307, "##et": 10308, "were": 10309, "##os": 10310, "od": 10311, "son": 10312, "An": 10313, "26": 10314, "World": 10315, "##\u043e": 10316, "##do": 10317, "\u05e9\u05dc": 10318, "which": 10319, "##ja": 10320, "va": 10321, "pour": 10322, "ve": 10323, "1999": 10324, "##ti": 10325, "sur": 10326, "\u0628\u0647": 10327, "23": 10328, "auf": 10329, "##la": 10330, "l\u00e0": 10331, "\u043e\u0442": 10332, "##\u00e9": 10333, "\u0433\u043e\u0434\u0430": 10334, "II": 10335, "##ed": 10336, "Life": 10337, "war": 10338, "za": 10339, "##to": 10340, "##se": 10341, "##ni": 10342, "##no": 10343, "\u0434\u043e": 10344, "or": 10345, "nel": 10346, "be": 10347, "28": 10348, "det": 10349, "##c": 10350, "##\u0442": 10351, "##\u0456": 10352, "##\u0445": 10353, "##ar": 10354, "qui": 10355, "\u03c4\u03bf\u03c5": 10356, "He": 10357, "\u03ba\u03b1\u03b9": 10358, "eine": 10359, "az": 10360, "te": 10361, "##va": 10362, "1998": 10363, "##\u043e\u043c": 10364, "27": 10365, "mm": 10366, "##\u0442\u0430": 10367, "##nt": 10368, "##ma": 10369, "finns": 10370, "##ka": 10371, "sich": 10372, "Catalogue": 10373, "had": 10374, "\u043d\u0435": 10375, "##ng": 10376, "It": 10377, "\u00een": 10378, "also": 10379, "so": 10380, "##je": 10381, "##\u0629": 10382, "\u0627\u0632": 10383, "##\u0439": 10384, "##\u044f": 10385, "29": 10386, "\u0438\u0437": 10387, "##\u0647": 10388, "1996": 10389, "##li": 10390, "1997": 10391, "am": 10392, "has": 10393, "km\u00b2": 10394, "roku": 10395, "\u0219i": 10396, "dari": 10397, "dos": 10398, "ur": 10399, "##ie": 10400, "##ri": 10401, "entre": 10402, "##as": 10403, "University": 10404, "\u0434\u0430": 10405, "lo": 10406, "100": 10407, "eta": 10408, "##\u043d\u0430": 10409, "##p": 10410, "era": 10411, "\u0915\u0947": 10412, "31": 10413, "ni": 10414, "##al": 10415, "##\u05d4": 10416, "m\u1ed9t": 10417, "##j": 10418, "##ce": 10419, "1990": 10420, "John": 10421, "first": 10422, "voor": 10423, "si\u0119": 10424, "##ca": 10425, "##ment": 10426, "os": 10427, "met": 10428, "##\u0627": 10429, "\u043e\u0434": 10430, "ou": 10431, "v\u00e0": 10432, "##\u043e\u0432": 10433, "2018": 10434, "all": 10435, "1995": 10436, "uma": 10437, "##\u05d9\u05dd": 10438, "\u0432\u043e": 10439, "##ko": 10440, "aus": 10441, "1991": 10442, "##\u00f3": 10443, "1994": 10444, "Der": 10445, "non": 10446, "c\u1ee7a": 10447, "foi": 10448, "##si": 10449, "1992": 10450, "##em": 10451, "af": 10452, "har": 10453, "##ly": 10454, "their": 10455, "ar": 10456, "##b": 10457, "film": 10458, "##\uc758": 10459, "avec": 10460, "##\u064a": 10461, "50": 10462, "1993": 10463, "one": 10464, "##um": 10465, "##sa": 10466, "bis": 10467, "Les": 10468, "San": 10469, "\u03c4\u03b7\u03c2": 10470, "##\u0103": 10471, "not": 10472, "but": 10473, "its": 10474, "\u0442\u0430": 10475, "\u0111\u01b0\u1ee3c": 10476, "##v": 10477, "ir": 10478, "who": 10479, "ny": 10480, "##\u05d5": 10481, "York": 10482, "##ga": 10483, "##\u03c2": 10484, "her": 10485, "##it": 10486, "\u03c4\u03bf": 10487, "ang": 10488, "m\u00e5naden": 10489, "Mexico": 10490, "over": 10491, "bei": 10492, "ser": 10493, "www": 10494, "\u0433\u043e\u0434\u0443": 10495, "nach": 10496, "\u3057\u305f": 10497, "\u06a9\u0647": 10498, "dei": 10499, "##mi": 10500, "##\u05ea": 10501, "##\u062a": 10502, "trakten": 10503, "trong": 10504, "nederb\u00f6rd": 10505, "##ki": 10506, "\u05d0\u05ea": 10507, "##\u043c\u0438": 10508, "ligger": 10509, "##\u043a": 10510, "t\u00eb": 10511, "alla": 10512, "##\u0441": 10513, "po": 10514, "auch": 10515, "History": 10516, "##\u043b": 10517, "yn": 10518, "##\u0440": 10519, "\u0434\u043b\u044f": 10520, "##\u043a\u0430": 10521, "door": 10522, "UK": 10523, "1989": 10524, "##ge": 10525, "##at": 10526, "dat": 10527, "runt": 10528, "have": 10529, "##\uc5d0": 10530, "this": 10531, "\u092e\u0947\u0902": 10532, "40": 10533, "##\u05d9": 10534, "##\u064a\u0629": 10535, "American": 10536, "##ba": 10537, "1980": 10538, "ed": 10539, "uit": 10540, "##\u0432": 10541, "species": 10542, "m\u00e1s": 10543, "fr\u00e5n": 10544, "##\u00ed": 10545, "##ur": 10546, "este": 10547, "1988": 10548, "ya": 10549, "##ke": 10550, "two": 10551, "parte": 10552, "fue": 10553, "ne": 10554, "Checklist": 10555, "http": 10556, "Ang": 10557, "n\u0103m": 10558, "amb": 10559, "\u0639\u0644\u0649": 10560, "bir": 10561, "##st": 10562, "plus": 10563, "##\u0627\u062a": 10564, "ITIS": 10565, "\u0627\u0633\u062a": 10566, "##ro": 10567, "Press": 10568, "\u0939\u0948": 10569, "##el": 10570, "under": 10571, "\u05e2\u05dc": 10572, "\u3059\u308b": 10573, "zijn": 10574, "##f": 10575, "On": 10576, "##\u05d5\u05ea": 10577, "1986": 10578, "werd": 10579, "zum": 10580, "1987": 10581, "##\u0646": 10582, "1985": 10583, "978": 10584, "pada": 10585, "meter": 10586, "\u0441\u0443": 10587, "men": 10588, "##man": 10589, "been": 10590, "dell": 10591, "ini": 10592, "##\u044e": 10593, "familia": 10594, "din": 10595, "September": 10596, "1984": 10597, "##ci": 10598, "einer": 10599, "Orrell": 10600, "c\u00f3": 10601, "Saint": 10602, "sua": 10603, "##ul": 10604, "##ndo": 10605, "album": 10606, "1970": 10607, "qu": 10608, "United": 10609, "ao": 10610, "##mente": 10611, "##ve": 10612, "\u00f6ver": 10613, "mais": 10614, "werden": 10615, "Annual": 10616, "seu": 10617, "Panoramas": 10618, "Viewfinder": 10619, "genus": 10620, "##\u0105": 10621, "##\uc744": 10622, "september": 10623, "Kirk": 10624, "##\u0441\u044f": 10625, "oli": 10626, "##me": 10627, "fra": 10628, "Reading": 10629, "Los": 10630, "Michael": 10631, "sie": 10632, "##den": 10633, "##\u306e": 10634, "time": 10635, "##\u043d\u043e": 10636, "##za": 10637, "##io": 10638, "Bourgoin": 10639, "NASA": 10640, "\u0627\u06cc\u0646": 10641, "1982": 10642, "1983": 10643, "##\u00f3w": 10644, "Bailly": 10645, "ngan": 10646, "sont": 10647, "##\u043a\u0438": 10648, "\u03c4\u03b7\u03bd": 10649, "Roskov": 10650, "Baillargeon": 10651, "III": 10652, "Paglinawan": 10653, "1981": 10654, "National": 10655, "##\u043d\u0438": 10656, "No": 10657, "##\u062f": 10658, "dengan": 10659, "DEM": 10660, "##\u00e1": 10661, "after": 10662, "dalam": 10663, "ett": 10664, "1975": 10665, "Det": 10666, "##or": 10667, "part": 10668, "01": 10669, "1945": 10670, "dia": 10671, "Das": 10672, "##\u0631": 10673, "##\u043b\u0430": 10674, "1979": 10675, "##nya": 10676, "1972": 10677, "come": 10678, "##ya": 10679, "red": 10680, "##ten": 10681, "ing\u00e5r": 10682, "els": 10683, "other": 10684, "Na": 10685, "##x": 10686, "n\u00eb": 10687, "France": 10688, "they": 10689, "sobre": 10690, "\u06a9\u06d2": 10691, "##om": 10692, "1978": 10693, "William": 10694, "##\u043d\u0435": 10695, "##\u0442\u0435": 10696, "tot": 10697, "1968": 10698, "1960": 10699, "##\u0645": 10700, "jako": 10701, "\u0431\u044b\u043b": 10702, "##di": 10703, "delen": 10704, "1976": 10705, "##kan": 10706, "##ek": 10707, "into": 10708, "60": 10709, "##ak": 10710, "v\u0259": 10711, "till": 10712, "##\u0131": 10713, "durch": 10714, "##lo": 10715, "##ung": 10716, "\u0440\u043e\u043a\u0443": 10717, "ble": 10718, "06": 10719, "\u03b1\u03c0\u03cc": 10720, "##\u0456\u0432": 10721, "1977": 10722, "1974": 10723, "1973": 10724, "May": 10725, "nicht": 10726, "aan": 10727, "Paris": 10728, "##2": 10729, "ka": 10730, "##S": 10731, "1971": 10732, "org": 10733, "Mer": 10734, "August": 10735, "zur": 10736, "mai": 10737, "##A": 10738, "##\uc774": 10739, "dal": 10740, "up": 10741, "##\u0647\u0627": 10742, "ng": 10743, "h\u00e4r": 10744, "einem": 10745, "##\u0434": 10746, "This": 10747, "\u0631\u0627": 10748, "nahilalakip": 10749, "d\u00e5": 10750, "new": 10751, "##\u0442\u043e": 10752, "\u0925\u094d\u0935": 10753, "aux": 10754, "Ginkuh\u00e0": 10755, "##ny": 10756, "500": 10757, "##ho": 10758, "##1": 10759, "oder": 10760, "##ju": 10761, "sind": 10762, "landet": 10763, "1969": 10764, "##\u0627\u0646": 10765, "Jean": 10766, "algoritmen": 10767, "Anv\u00e4ndare": 10768, "Algoritmer": 10769, "Lsjbot": 10770, "International": 10771, "Paul": 10772, "City": 10773, "##lar": 10774, "##ji": 10775, "h\u00f6jduppgifter": 10776, "200": 10777, "\u041d\u0430": 10778, "\u043a\u043c": 10779, "April": 10780, "\u03bc\u03b5": 10781, "untuk": 10782, "##\u043b\u0438": 10783, "adalah": 10784, "hij": 10785, "uska": 10786, "ziren": 10787, "att": 10788, "n\u00e0y": 10789, "wird": 10790, "\u0447\u0442\u043e": 10791, "c\u00e1c": 10792, "iz": 10793, "ce": 10794, "sin": 10795, "Im": 10796, "##go": 10797, "more": 10798, "nan": 10799, "1967": 10800, "pas": 10801, "havet": 10802, "35": 10803, "David": 10804, "ei": 10805, "##ts": 10806, "nella": 10807, "US": 10808, "hini": 10809, "##ci\u00f3n": 10810, "1950": 10811, "##co": 10812, "TV": 10813, "04": 10814, "##ler": 10815, "##\u00e0": 10816, "man": 10817, "Han": 10818, "November": 10819, "Robert": 10820, "Nicolson": 10821, "##tion": 10822, "##\u0433": 10823, "ma": 10824, "1944": 10825, "\u0915\u0940": 10826, "45": 10827, "1962": 10828, "London": 10829, "lui": 10830, "05": 10831, "80": 10832, "she": 10833, "dels": 10834, "##ir": 10835, "##\u00eda": 10836, "delle": 10837, "St": 10838, "1965": 10839, "ad": 10840, "when": 10841, "32": 10842, "65": 10843, "##\u0173": 10844, "\u00e9t\u00e9": 10845, "sus": 10846, "f\u00f6r": 10847, "\u00fcber": 10848, "subspecies": 10849, "due": 10850, "##\u044c": 10851, "##\u0432\u0430": 10852, "##ku": 10853, "cu": 10854, "years": 10855, "1964": 10856, "1966": 10857, "##C": 10858, "States": 10859, "familjen": 10860, "\u06c1\u06d2": 10861, "fan": 10862, "\u0625\u0644\u0649": 10863, "\u0449\u043e": 10864, "NGC": 10865, "Ouvrard": 10866, "Het": 10867, "\u0441\u0430": 10868, "Bisby": 10869, "##ze": 10870, "\u10d3\u10d0": 10871, "ginhulagway": 10872, "later": 10873, "##w": 10874, "1961": 10875, "h\u1ecd": 10876, "##ter": 10877, "07": 10878, "ki": 10879, "\u0438\u043b\u0438": 10880, "1941": 10881, "As": 10882, "Al": 10883, "##3": 10884, "##\u00eb": 10885, "County": 10886, "Waray": 10887, "1940": 10888, "huvudstaden": 10889, "nakalista": 10890, "##ns": 10891, "##\uc740": 10892, "only": 10893, "would": 10894, "1939": 10895, "##ik": 10896, "einen": 10897, "##\u304c": 10898, "pi\u00f9": 10899, "James": 10900, "##ers": 10901, "godine": 10902, "Framr\u00e4knat": 10903, "1963": 10904, "kan": 10905, "\u304b\u3089": 10906, "03": 10907, "##ry": 10908, "\u0628\u0627": 10909, "januari": 10910, "me": 10911, "Es": 10912, "\u043f\u0440\u0438": 10913, "##\u0940": 10914, "Er": 10915, "\u0645\u06cc\u06ba": 10916, "##sen": 10917, "##\u0647\u0627\u06cc": 10918, "90": 10919, "##des": 10920, "##ha": 10921, "##\u00e7\u00e3o": 10922, "70": 10923, "year": 10924, "Charles": 10925, "sl\u00e4ktet": 10926, "##ban": 10927, "##\u0435\u043d": 10928, "##0": 10929, "blev": 10930, "pa": 10931, "##\u05dd": 10932, "\u0435\u0433\u043e": 10933, "varmaste": 10934, "\u00c5rsmedeltemperaturen": 10935, "kallaste": 10936, "beskrevs": 10937, "medeltemperaturen": 10938, "during": 10939, "where": 10940, "ze": 10941, "eller": 10942, "##rs": 10943, "can": 10944, "lo\u00e0i": 10945, "underarter": 10946, "1958": 10947, "between": 10948, "\u043a\u0430\u043a": 10949, "out": 10950, "Bronnen": 10951, "\u3055\u308c\u305f": 10952, "wie": 10953, "##\ub144": 10954, "George": 10955, "\u0441\u043e": 10956, "him": 10957, "Inga": 10958, "sono": 10959, "##\u0442\u0438": 10960, "##\u0644": 10961, "millimeter": 10962, "##\u0119": 10963, "noten": 10964, "##ben": 10965, "juli": 10966, "referenties": 10967, "alle": 10968, "##ren": 10969, "##\u043d\u044b\u0445": 10970, "##\u0568": 10971, "##sta": 10972, "jest": 10973, "ses": 10974, "1956": 10975, "##rt": 10976, "\u0914\u0930": 10977, "about": 10978, "Peter": 10979, "1959": 10980, "listade": 10981, "\u0c28\u0c41\u0c02\u0c21\u0c3f": 10982, "02": 10983, "School": 10984, "vun": 10985, "comme": 10986, "##\u0434\u0430": 10987, "1943": 10988, "tahun": 10989, "##\u0433\u043e": 10990, "##tu": 10991, "most": 10992, "##\u043c\u0430": 10993, "genomsnitt": 10994, "wurden": 10995, "torraste": 10996, "\u00e5rsnederb\u00f6rd": 10997, "Genomsnittlig": 10998, "regnigaste": 10999, "33": 11000, "\u0433\u043e\u0434\u0438\u043d\u0435": 11001, "##\u05df": 11002, "three": 11003, "1948": 11004, "fu": 11005, "##\u016f": 11006, "inv\u00e5nare": 11007, "##am": 11008, "kvadratkilometer": 11009, "##ou": 11010, "##4": 11011, "Earth": 11012, "##\u00e4": 11013, "anche": 11014, "ben": 11015, "##\u043e\u0442": 11016, "1942": 11017, "##\ub294": 11018, "made": 11019, "\u0430\u043d\u0433\u043b": 11020, "##ria": 11021, "\u0c15\u0c3f": 11022, "ye": 11023, "##ov": 11024, "00": 11025, "1957": 11026, "ng\u01b0\u1eddi": 11027, "1930": 11028, "1920": 11029, "##il": 11030, "used": 11031, "1954": 11032, "##mo": 11033, "dhe": 11034, "09": 11035, "vom": 11036, "##wa": 11037, "Un": 11038, "##jo": 11039, "sebagai": 11040, "forma": 11041, "##\u00e9s": 11042, "##ica": 11043, "##be": 11044, "Se": 11045, "##ion": 11046, "durante": 11047, "przez": 11048, "such": 11049, "##\u043d\u043e\u0433\u043e": 11050, "deux": 11051, "08": 11052, "known": 11053, "ved": 11054, "36": 11055, "South": 11056, "ta": 11057, "nie": 11058, "then": 11059, "\u043e\u043d": 11060, "USA": 11061, "##ken": 11062, "1946": 11063, "dass": 11064, "You": 11065, "Maria": 11066, "##ina": 11067, "\u03bd\u03b1": 11068, "34": 11069, "final": 11070, "1955": 11071, "\u0938\u0947": 11072, "\u3067\u3042\u308b": 11073, "League": 11074, "##\u043d\u043e\u0439": 11075, "\u06a9\u06cc": 11076, "population": 11077, "##\u043f": 11078, "##\u0440\u0430": 11079, "##land": 11080, "\u0915\u093e": 11081, "1938": 11082, "##lla": 11083, "than": 11084, "nu": 11085, "##\u0628": 11086, "1953": 11087, "##ine": 11088, "naam": 11089, "##T": 11090, "##\u0633": 11091, "##\u043d\u044b\u0439": 11092, "300": 11093, "IV": 11094, "1949": 11095, "Thomas": 11096, "1918": 11097, "India": 11098, "\u03c4\u03bf\u03bd": 11099, "1952": 11100, "All": 11101, "##\ud55c": 11102, "\u05d4\u05d5\u05d0": 11103, "State": 11104, "merupakan": 11105, "##\u0441\u043a\u043e\u0439": 11106, "##un": 11107, "##\u043d\u0456": 11108, "Oxford": 11109, "familie": 11110, "club": 11111, "July": 11112, "1947": 11113, "\u06cc\u06a9": 11114, "##zione": 11115, "m\u00e9s": 11116, "elle": 11117, "Richard": 11118, "##che": 11119, "June": 11120, "team": 11121, "Az": 11122, "1936": 11123, "unter": 11124, "h\u1ecdc": 11125, "44": 11126, "##P": 11127, "##\u09b0": 11128, "##ner": 11129, "##ic": 11130, "care": 11131, "second": 11132, "##\u0142": 11133, "zen": 11134, "ca": 11135, "mga": 11136, "Nel": 11137, "\u3068\u3057\u3066": 11138, "Retrieved": 11139, "##ok": 11140, "\u0432\u0456\u0434": 11141, "##ig": 11142, "##th": 11143, "March": 11144, "##\u0648": 11145, "inom": 11146, "##nu": 11147, "##\u0448": 11148, "She": 11149, "\u03c0\u03bf\u03c5": 11150, "\u306b\u306f": 11151, "some": 11152, "##ada": 11153, "Santa": 11154, "there": 11155, "oleh": 11156, "##ste": 11157, "GeoNames": 11158, "##ut": 11159, "British": 11160, "pe": 11161, "Film": 11162, "ke": 11163, "West": 11164, "data": 11165, "##5": 11166, "gli": 11167, "area": 11168, "##\u00e1n": 11169, "co": 11170, "38": 11171, "\u04bb\u04d9\u043c": 11172, "1937": 11173, "##ci\u00f3": 11174, "born": 11175, "400": 11176, "kao": 11177, "any": 11178, "became": 11179, "\u03c4\u03c9\u03bd": 11180, "##dos": 11181, "v\u1edbi": 11182, "##ton": 11183, "##\u0441\u043a\u043e\u0433\u043e": 11184, "serie": 11185, "\u090f\u0915": 11186, "ook": 11187, "\u0a9b\u0ac7": 11188, "##que": 11189, "vor": 11190, "##\u043a\u0443": 11191, "place": 11192, "Berlin": 11193, "##\u043d\u044b\u0435": 11194, "##ty": 11195, "soort": 11196, "##tes": 11197, "including": 11198, "##\u09c7": 11199, "1951": 11200, "\u0111\u1ea7u": 11201, "pod": 11202, "##ble": 11203, "37": 11204, "##das": 11205, "well": 11206, "cm": 11207, "##\u093e": 11208, "##\u05e8": 11209, "##gi": 11210, "##6": 11211, "October": 11212, "\u0111\u00e3": 11213, "##\u056b": 11214, "egy": 11215, "##nen": 11216, "##\u0576": 11217, "Jahr": 11218, "koji": 11219, "General": 11220, "oraz": 11221, "through": 11222, "being": 11223, "##n\u00ed": 11224, "North": 11225, "season": 11226, "##nte": 11227, "waren": 11228, "\u0433\u043e\u0434\u0438\u043d\u0430": 11229, "noch": 11230, "##ll": 11231, "doi": 11232, "##ea": 11233, "##res": 11234, "Martin": 11235, "##ant": 11236, "hadton": 11237, "January": 11238, "Park": 11239, "##\u0430\u043d": 11240, "eerst": 11241, "##\u06c1": 11242, "##\u00f2": 11243, "##vo": 11244, "##\u00e9e": 11245, "##n\u00e9": 11246, "1933": 11247, "Love": 11248, "##id": 11249, "hat": 11250, "\u0c09\u0c28\u0c4d\u0c28\u0c3e\u0c2f\u0c3f": 11251, "ko": 11252, "##ssa": 11253, "database": 11254, "Po": 11255, "Society": 11256, "cho": 11257, "##\u0442\u044c": 11258, "##E": 11259, "\u0565\u0576": 11260, "##\ub85c": 11261, "\u03c3\u03c4\u03b7\u03bd": 11262, "##ck": 11263, "tra": 11264, "fost": 11265, "pero": 11266, "\u0915\u094b": 11267, "##les": 11268, "##ning": 11269, "##lle": 11270, "1935": 11271, "##ado": 11272, "##R": 11273, "##B": 11274, "##ske": 11275, "42": 11276, "War": 11277, "a\u00f1os": 11278, "\u043d\u043e": 11279, "##gen": 11280, "##I": 11281, "##zi": 11282, "1934": 11283, "pro": 11284, "\u0633\u0627\u0644": 11285, "1919": 11286, "##\uac00": 11287, "December": 11288, "Em": 11289, "##ot": 11290, "##\u05dc": 11291, "##\u043e\u0439": 11292, "##ist": 11293, "##\u064a\u0646": 11294, "64": 11295, "bij": 11296, "##nie": 11297, "##ista": 11298, "many": 11299, "48": 11300, "After": 11301, "sebuah": 11302, "39": 11303, "##der": 11304, "##7": 11305, "1914": 11306, "##\u043d\u044b": 11307, "nord": 11308, "pp": 11309, "##vi": 11310, "Database": 11311, "##\u306b": 11312, "Europa": 11313, "\u0c2e\u0c40": 11314, "suo": 11315, "Club": 11316, "Music": 11317, "radie": 11318, "Grand": 11319, "\u3067\u306f": 11320, "##\u10e1": 11321, "ci": 11322, "\u0434\u0435": 11323, "name": 11324, "Museum": 11325, "##\u0648\u0646": 11326, "against": 11327, "prima": 11328, "fait": 11329, "\u0622\u0646": 11330, "volt": 11331, "\u305d\u306e": 11332, "1932": 11333, "Louis": 11334, "##nia": 11335, "1929": 11336, "will": 11337, "\u03c3\u03b5": 11338, "total": 11339, "One": 11340, "\u0623\u0646": 11341, "bi": 11342, "Man": 11343, "1928": 11344, "them": 11345, "ai": 11346, "##\u0433\u0430": 11347, "##berg": 11348, "41": 11349, "\u044f\u043a": 11350, "\u03b3\u03b9\u03b1": 11351, "hogy": 11352, "dalla": 11353, "nur": 11354, "##pe": 11355, "world": 11356, "ab": 11357, "55": 11358, "##pa": 11359, "before": 11360, "\u03c3\u03c4\u03bf": 11361, "amin": 11362, "\u0627\u0648\u0631": 11363, "original": 11364, "family": 11365, "series": 11366, "won": 11367, "1917": 11368, "##L": 11369, "43": 11370, "while": 11371, "ale": 11372, "##9": 11373, "\u0c09\u0c02\u0c26\u0c3f": 11374, "Jos\u00e9": 11375, "single": 11376, "##\u3092": 11377, "ont": 11378, "Joseph": 11379, "commune": 11380, "uno": 11381, "##nde": 11382, "1931": 11383, "##\u045e": 11384, "cui": 11385, "##\u0441\u043a\u0438\u0439": 11386, "may": 11387, "state": 11388, "general": 11389, "##tas": 11390, "Records": 11391, "desde": 11392, "school": 11393, "sous": 11394, "solo": 11395, "##8": 11396, "Art": 11397, "byl": 11398, "For": 11399, "\u00e5r": 11400, "##ski": 11401, "juni": 11402, "##O": 11403, "base": 11404, "##ent": 11405, "via": 11406, "nom": 11407, "both": 11408, "roce": 11409, "hasta": 11410, "seiner": 11411, "stato": 11412, "47": 11413, "\u05e2\u05dd": 11414, "sowie": 11415, "1924": 11416, "75": 11417, "##men": 11418, "ex": 11419, "n\u00e3o": 11420, "##\u09c7\u09b0": 11421, "naar": 11422, "##\u05d9\u05ea": 11423, "work": 11424, "worden": 11425, "people": 11426, "\u0436\u04d9\u043d\u0435": 11427, "gepubliceerd": 11428, "\u043f\u043e\u0434": 11429, "Encyclopedia": 11430, "\u043e\u0431\u043b\u0430\u0441\u0442\u0438": 11431, "gran": 11432, "wetenschappelijke": 11433, "##\u0441\u043a\u0438": 11434, "##lu": 11435, "local": 11436, "\u0639\u0627\u0645": 11437, "mars": 11438, "grande": 11439, "America": 11440, "Lake": 11441, "1927": 11442, "ogs\u00e5": 11443, "until": 11444, "##ky": 11445, "##ger": 11446, "##G": 11447, "\u0442\u0430\u043a\u0436\u0435": 11448, "##\u00e3o": 11449, "\u0431\u044b\u043b\u0430": 11450, "##\u00fd": 11451, "geldig": 11452, "##\u0928": 11453, "College": 11454, "\u0441\u0442\u0430\u043d\u043e\u0432\u043d\u0438\u043a\u0430": 11455, "##\u0446\u0430": 11456, "Union": 11457, "\u0c17\u0c4d\u0c30\u0c3e\u0c2e\u0c02": 11458, "Ny": 11459, "##du": 11460, "1922": 11461, "##cia": 11462, "1925": 11463, "cette": 11464, "##ura": 11465, "1921": 11466, "##\uc73c\ub85c": 11467, "zeuden": 11468, "To": 11469, "Trakten": 11470, "wa": 11471, "1926": 11472, "contra": 11473, "Van": 11474, "\u0440\u043e\u0446\u0456": 11475, "\u03b5\u03af\u03bd\u03b1\u03b9": 11476, "##ii": 11477, "##sk": 11478, "sein": 11479, "\u041f\u043e": 11480, "##ol": 11481, "##\u00f3n": 11482, "##\u0101": 11483, "##\u0107": 11484, "##ska": 11485, "history": 11486, "number": 11487, "##ad": 11488, "##\uc5d0\uc11c": 11489, "##D": 11490, "nombre": 11491, "##\u043d\u0438\u0445": 11492, "seine": 11493, "Jahre": 11494, "\u0433\u043e": 11495, "##nes": 11496, "##\u094b\u0902": 11497, "##mento": 11498, "bu": 11499, "Am": 11500, "primer": 11501, "##\u0438\u044f": 11502, "\u06a9\u0627": 11503, "esta": 11504, "Nach": 11505, "\uc788\ub2e4": 11506, "1912": 11507, "February": 11508, "##\u0632": 11509, "##\u0c32\u0c4b": 11510, "##\u0457": 11511, "System": 11512, "##\ub97c": 11513, "Award": 11514, "King": 11515, "anni": 11516, "##M": 11517, "Las": 11518, "bat": 11519, "hi": 11520, "1923": 11521, "m\u00f6": 11522, "partir": 11523, "51": 11524, "52": 11525, "Nacional": 11526, "##tt": 11527, "46": 11528, "FC": 11529, "##by": 11530, "sem": 11531, "##\u043d\u0438\u0439": 11532, "##lt": 11533, "##nd": 11534, "juga": 11535, "\u043a\u04c0\u043e\u0448\u0442\u0430\u043d": 11536, "##N": 11537, "ay": 11538, "released": 11539, "##ien": 11540, "\u0c26\u0c42\u0c30\u0c02\u0c32\u0c4b": 11541, "##ai": 11542, "Elle": 11543, "Cup": 11544, "House": 11545, "sig": 11546, "provinsen": 11547, "##\u043d\u0430\u044f": 11548, "##\u0930": 11549, "##\u0438\u0439": 11550, "bagian": 11551, "called": 11552, "played": 11553, "##\u0947": 11554, "Italia": 11555, "\u041a\u0445\u0443\u0437\u0430\u0445\u044c": 11556, "##\u043a\u0435": 11557, "nem": 11558, "est\u00e1": 11559, "seus": 11560, "same": 11561, "##\u0259": 11562, "stanovnika": 11563, "tambi\u00e9n": 11564, "##F": 11565, "aber": 11566, "##\u0441\u0442": 11567, "1900": 11568, "hatte": 11569, "band": 11570, "##\u0437": 11571, "end": 11572, "nos": 11573, "\u3057\u3066\u3044\u308b": 11574, "River": 11575, "\u0434\u0443": 11576, "##\u10d0": 11577, "r\u00e5der": 11578, "##\u043e\u043d": 11579, "49": 11580, "asteroid": 11581, "\u0431\u044b\u043b\u043e": 11582, "Sie": 11583, "city": 11584, "1910": 11585, "Washington": 11586, "##ach": 11587, "##\u306f": 11588, "Me": 11589, "My": 11590, "##are": 11591, "\u3057\u3066": 11592, "China": 11593, "m\u00eame": 11594, "Tour": 11595, "Royal": 11596, "His": 11597, "four": 11598, "##son": 11599, "ing": 11600, "Henry": 11601, "##\u043b\u043e": 11602, "v\u00e0o": 11603, "ile": 11604, "##ert": 11605, "1913": 11606, "village": 11607, "##len": 11608, "Pierre": 11609, "based": 11610, "##ischen": 11611, "Dr": 11612, "##\u0435\u0442": 11613, "li": 11614, "zwei": 11615, "English": 11616, "tre": 11617, "vid": 11618, "Italy": 11619, "##ron": 11620, "California": 11621, "##ita": 11622, "##\u043a\u043e": 11623, "##ies": 11624, "\u0cae\u0ca4\u0ccd\u0ca4\u0cc1": 11625, "##\u0634": 11626, "##ire": 11627, "56": 11628, "th\u00e0nh": 11629, "##ian": 11630, "##ana": 11631, "t\u1ea3": 11632, "nome": 11633, "s\u1ed1": 11634, "Canada": 11635, "##\u011b": 11636, "##\u00fa": 11637, "ikke": 11638, "re": 11639, "##cht": 11640, "Red": 11641, "th\u00e1ng": 11642, "##he": 11643, "\u00e9tait": 11644, "##bi": 11645, "CD": 11646, "\u0431\u044b\u043b\u0438": 11647, "##\u0578\u0582\u0574": 11648, "IC": 11649, "zosta\u0142": 11650, "namngivna": 11651, "principal": 11652, "54": 11653, "Routledge": 11654, "eines": 11655, "wordt": 11656, "\u0432\u0440\u0435\u043c\u044f": 11657, "Indonesia": 11658, "kilometer": 11659, "sud": 11660, "game": 11661, "##\u3068": 11662, "\u0442\u043e": 11663, "##\uace0": 11664, "degli": 11665, "##lich": 11666, "Italian": 11667, "##\u30f3": 11668, "##so": 11669, "niet": 11670, "anno": 11671, "##ische": 11672, "Smith": 11673, "version": 11674, "vez": 11675, "##ks": 11676, "apr\u00e8s": 11677, "ug": 11678, "##ud": 11679, "##ru": 11680, "tres": 11681, "1915": 11682, "public": 11683, "\u00eatre": 11684, "khoa": 11685, "Juan": 11686, "##\u0641": 11687, "n\u00e4rheten": 11688, "\u0633\u06d2": 11689, "dit": 11690, "december": 11691, "##\u043d\u044b\u043c": 11692, "##\u0639": 11693, "Lo\u00e0i": 11694, "long": 11695, "They": 11696, "Cambridge": 11697, "\u03c4\u03b1": 11698, "At": 11699, "\u017ee": 11700, "England": 11701, "\u0627\u0644\u062a\u064a": 11702, "##q": 11703, "Air": 11704, "##au": 11705, "izd": 11706, "\u043a\u043e\u0434\u044b": 11707, "sistema": 11708, "##ier": 11709, "##cy": 11710, "##\u06a9": 11711, "\u0417\u0430": 11712, "\u0448\u0442\u043e": 11713, "##\u0932": 11714, "nun": 11715, "\u0939\u0948\u0902": 11716, "##mu": 11717, "##\u043d\u0438\u043a": 11718, "Center": 11719, "\u0648\u0627\u0642\u0639": 11720, "BBC": 11721, "\u0627\u0633": 11722, "There": 11723, "vuonna": 11724, "november": 11725, "##ida": 11726, "Madrid": 11727, "Runt": 11728, "Australia": 11729, "Best": 11730, "sau": 11731, "early": 11732, "##K": 11733, "a\u00f1o": 11734, "ut": 11735, "several": 11736, "##\u09a8": 11737, "1911": 11738, "Company": 11739, "Don": 11740, "Si": 11741, "##\u0435\u0439": 11742, "ville": 11743, "ans": 11744, "enligt": 11745, "##\u0447": 11746, "##ls": 11747, "pentru": 11748, "\u0639\u0646": 11749, "Black": 11750, "Association": 11751, "##\u043d\u0443": 11752, "olan": 11753, "atau": 11754, "kh\u00f4ng": 11755, "53": 11756, "Christian": 11757, "dont": 11758, "##im": 11759, "use": 11760, "84": 11761, "these": 11762, "Hall": 11763, "since": 11764, "nog": 11765, "150": 11766, "Europe": 11767, "Hans": 11768, "ten": 11769, "\u0a39\u0a48": 11770, "Festival": 11771, "olarak": 11772, "land": 11773, "##\u0b95\u0bb3\u0bcd": 11774, "former": 11775, "h\u00f6gsta": 11776, "##\u0440\u0438": 11777, "##ini": 11778, "##V": 11779, "UTC": 11780, "##han": 11781, "cada": 11782, "go": 11783, "Mai": 11784, "1916": 11785, "seva": 11786, "system": 11787, "zwischen": 11788, "guerra": 11789, "##bo": 11790, "Do": 11791, "Daniel": 11792, "pela": 11793, "Roma": 11794, "group": 11795, "600": 11796, "\u0645\u0639": 11797, "Francisco": 11798, "\u03c4\u03b7": 11799, "\u0628\u0646": 11800, "\u0a26\u0a47": 11801, "##nin": 11802, "wat": 11803, "regia": 11804, "##\u043c\u0443": 11805, "Jan": 11806, "leur": 11807, "oktober": 11808, "##ation": 11809, "maar": 11810, "ti\u00ean": 11811, "1905": 11812, "##tor": 11813, "o\u00f9": 11814, "\u0436\u0435": 11815, "home": 11816, "57": 11817, "Da": 11818, "1908": 11819, "\u0434\u0430\u0440": 11820, "##dae": 11821, "##ciones": 11822, "found": 11823, "58": 11824, "station": 11825, "fin": 11826, "##ius": 11827, "##\u05e1": 11828, "Census": 11829, "East": 11830, "\u3053\u306e": 11831, "##\u0649": 11832, "##\u0441\u044c": 11833, "Marie": 11834, "\u0628\u0631\u0627\u06cc": 11835, "Star": 11836, "augusti": 11837, "nj\u00eb": 11838, "music": 11839, "t\u1eeb": 11840, "post": 11841, "donde": 11842, "\u0623\u0648": 11843, "national": 11844, "##\u0924": 11845, "high": 11846, "set": 11847, "Island": 11848, "##dor": 11849, "like": 11850, "##\u043b\u0435": 11851, "##\u0642": 11852, "1907": 11853, "\u0926\u0941": 11854, "##ux": 11855, "mas": 11856, "##vat": 11857, "now": 11858, "ra": 11859, "punkten": 11860, "##nda": 11861, "Karl": 11862, "##lik": 11863, "Jahren": 11864, "##idae": 11865, "\u0628\u0639\u062f": 11866, "59": 11867, "tidak": 11868, "my\u00f6s": 11869, "##\u0627\u064b": 11870, "fut": 11871, "Frank": 11872, "Antonio": 11873, "april": 11874, "dopo": 11875, "primera": 11876, "##iu": 11877, "Stadt": 11878, "\u0634\u062f": 11879, "##ker": 11880, "Insecta": 11881, "##\uacfc": 11882, "\u03c4\u03bf\u03c5\u03c2": 11883, "##\u0627\u0631": 11884, "Central": 11885, "##\u0117": 11886, "ga": 11887, "nei": 11888, "##ang": 11889, "##\u0434\u044b": 11890, "Japan": 11891, "\u0628\u0648\u062f": 11892, "##\u05d5\u05df": 11893, "French": 11894, "kg": 11895, "XIX": 11896, "show": 11897, "off": 11898, "##\u043e\u043a": 11899, "800": 11900, "following": 11901, "Estados": 11902, "##\ub2e4": 11903, "pelo": 11904, "##\u0438\u0438": 11905, "dieser": 11906, "##ige": 11907, "##ua": 11908, "##chen": 11909, "itu": 11910, "##ico": 11911, "##ted": 11912, "premier": 11913, "European": 11914, "ban": 11915, "Bu": 11916, "\u0647\u0648": 11917, "##ice": 11918, "Open": 11919, "site": 11920, "\u043f\u043e\u0441\u043b\u0435": 11921, "major": 11922, "Observations": 11923, "##hi": 11924, "##\uc774\ub2e4": 11925, "vida": 11926, "adolah": 11927, "Band": 11928, "Journal": 11929, "gegen": 11930, "februari": 11931, "1906": 11932, "##lar\u0131": 11933, "nh\u1eefng": 11934, "v\u1eadt": 11935, "Od": 11936, "\u307e\u305f": 11937, "art": 11938, "1904": 11939, "day": 11940, "began": 11941, "##ive": 11942, "century": 11943, "1909": 11944, "##ling": 11945, "\u00cen": 11946, "by\u0142": 11947, "each": 11948, "##ity": 11949, "##ej": 11950, "we": 11951, "##ata": 11952, "telah": 11953, "located": 11954, "\u0431\u0443\u043b\u043e": 11955, "High": 11956, "##dir": 11957, "District": 11958, "ili": 11959, "h\u00e4n": 11960, "tamb\u00e9m": 11961, "Street": 11962, "\u0441\u0435\u043b\u043e": 11963, "##sti": 11964, "estado": 11965, "Als": 11966, "Oktober": 11967, "Unidos": 11968, "##\u00e1t": 11969, "havia": 11970, "quando": 11971, "##gan": 11972, "seit": 11973, "\u0433\u043e\u0434": 11974, "##ven": 11975, "Zeit": 11976, "##\u0435\u0440": 11977, "95": 11978, "\u0627\u06cc\u0631\u0627\u0646": 11979, "##\u0441\u043a\u0430\u044f": 11980, "novembre": 11981, "Per": 11982, "nasod": 11983, "Edward": 11984, "##zen": 11985, "\u092d\u093e\u0937\u093e": 11986, "Division": 11987, "net": 11988, "service": 11989, "##ui": 11990, "held": 11991, "th\u1ef1c": 11992, "\u043d\u0430\u043b\u0430\u0437\u0438": 11993, "autres": 11994, "\u03a4\u03bf": 11995, "Population": 11996, "Mark": 11997, "##ei": 11998, "menjadi": 11999, "Time": 12000, "Land": 12001, "\u0111\u1ebfn": 12002, "aussi": 12003, "Nord": 12004, "thu\u1ed9c": 12005, "Lee": 12006, "##\u00b0": 12007, "member": 12008, "##\u06d2": 12009, "\u043d\u0430\u0441\u0435\u043b\u0435\u043d\u0438\u044f": 12010, "song": 12011, "##\u0446\u0438": 12012, "##rio": 12013, "back": 12014, "##era": 12015, "##\u0441\u0430": 12016, "85": 12017, "agosto": 12018, "##\u043e\u0432\u0430": 12019, "Times": 12020, "hans": 12021, "##U": 12022, "##rd": 12023, "anos": 12024, "##\u0436": 12025, "German": 12026, "##nik": 12027, "bien": 12028, "##\u0438\u043d": 12029, "##\uc778": 12030, "Institute": 12031, "deze": 12032, "\u0439\u043e\u0433\u04c0\u0443": 12033, "Is": 12034, "\u0431\u0443\u0432": 12035, "Terr\u00e4ngen": 12036, "sul": 12037, "named": 12038, "\u0c17\u0c4d\u0c30\u0c3e\u0c2e\u0c02\u0c32\u0c4b": 12039, "##\u0430\u043c\u0438": 12040, "hun": 12041, "seg": 12042, "##ville": 12043, "##sch": 12044, "andere": 12045, "onder": 12046, "government": 12047, "120": 12048, "\u062f\u06d2": 12049, "Carlos": 12050, "\u098f\u09ac\u0982": 12051, "\u043a\u043c\u00b2": 12052, "\u05d1\u05e9\u05e0\u05ea": 12053, "Group": 12054, "##lan": 12055, "depuis": 12056, "unha": 12057, "onde": 12058, "##tan": 12059, "nad": 12060, "##ene": 12061, "alors": 12062, "Alexander": 12063, "\u0438\u0445": 12064, "Live": 12065, "62": 12066, "XX": 12067, "\u0420\u0424": 12068, "##\u0561\u056f\u0561\u0576": 12069, "\u043a\u0430\u0442\u043e": 12070, "a\u00f0": 12071, "khi": 12072, "\u041f\u0440\u0435\u043c\u0430": 12073, "88": 12074, "\u044e\u043a\u044a\u0430": 12075, "Hij": 12076, "large": 12077, "video": 12078, "##\u09be": 12079, "Modern": 12080, "lugar": 12081, "mot": 12082, "Radio": 12083, "\u0627\u0648": 12084, "##\u05d3": 12085, "t\u1ea1i": 12086, "Os": 12087, "casa": 12088, "age": 12089, "##lor": 12090, "\u00e9galement": 12091, "##\ub3c4": 12092, "s\u0103": 12093, "##\u05d1": 12094, "##\u0441\u044b": 12095, "##zo": 12096, "##cie": 12097, "essere": 12098, "##\u0458\u0435": 12099, "company": 12100, "##ure": 12101, "jeho": 12102, "life": 12103, "per\u00f2": 12104, "##ley": 12105, "binon": 12106, "district": 12107, "\u0439\u043e\u0433\u043e": 12108, "Rio": 12109, "##j\u0105": 12110, "##ran": 12111, "\u043f\u0440\u0435\u0437": 12112, "Barcelona": 12113, "S\u00e3o": 12114, "pa\u00eds": 12115, "production": 12116, "line": 12117, "##\u043b\u044c": 12118, "##\u044b\u043d": 12119, "72": 12120, "meg": 12121, "##ere": 12122, "\u0442\u0430\u043a": 12123, "palibot": 12124, "##ris": 12125, "main": 12126, "fr": 12127, "First": 12128, "eerste": 12129, "##kin": 12130, "##tte": 12131, "mi": 12132, "gikan": 12133, "ali": 12134, "Index": 12135, "White": 12136, "ng\u00e0y": 12137, "ainsi": 12138, "efter": 12139, "Team": 12140, "##ting": 12141, "social": 12142, "fr\u00e5": 12143, "latach": 12144, "Information": 12145, "##dan": 12146, "Science": 12147, "Una": 12148, "took": 12149, "##nce": 12150, "##\u0915": 12151, "\u0420\u043e\u0441\u0441\u0438\u0438": 12152, "left": 12153, "##\u0441\u043a\u043e\u043c": 12154, "si\u00e8cle": 12155, "\u0567\u0580": 12156, "##n\u011b": 12157, "Rock": 12158, "Data": 12159, "Op": 12160, "jedoch": 12161, "ordo": 12162, "##\u00e1u": 12163, "##\u0c32\u0c41": 12164, "s\u00e9rie": 12165, "around": 12166, "##\u0446\u0456": 12167, "\u05d4\u05d9\u05d4": 12168, "huvudsak": 12169, "##\u0576\u0565\u0580\u056b": 12170, "##\u0458\u0430": 12171, "did": 12172, "habitantes": 12173, "could": 12174, "1903": 12175, "Mary": 12176, "##bu": 12177, "##\ud558\ub294": 12178, "premi\u00e8re": 12179, "82": 12180, "##\u0446": 12181, "##\u05e0\u05d4": 12182, "built": 12183, "##\u0441\u043a\u0430": 12184, "capital": 12185, "1000": 12186, "99": 12187, "form": 12188, "##\u0441\u0442\u0438": 12189, "\u067e\u0631": 12190, "nell": 12191, "##\u0ca6": 12192, "pado": 12193, "\u092f\u093e": 12194, "\u062f\u0627\u0631\u062f": 12195, "joka": 12196, "dla": 12197, "habitants": 12198, "\u3055\u308c": 12199, "##ului": 12200, "##tta": 12201, "##\u0442\u044b": 12202, "Diptera": 12203, "##\u043d\u044b\u04a3": 12204, "Friedrich": 12205, "poblaci\u00f3n": 12206, "abril": 12207, "##t\u00e9": 12208, "However": 12209, "Ein": 12210, "fa": 12211, "##ber": 12212, "\u092a\u0930": 12213, "250": 12214, "66": 12215, "##\u0131n": 12216, "##\u0baa\u0bcd": 12217, "\u06cc\u0627": 12218, "News": 12219, "region": 12220, "town": 12221, "From": 12222, "##ale": 12223, "86": 12224, "Carl": 12225, "ersten": 12226, "variansen": 12227, "lan": 12228, "pre": 12229, "##\u30b9": 12230, "zona": 12231, "##\u0441\u0442\u0432\u043e": 12232, "Angeles": 12233, "##val": 12234, "##\u09bf": 12235, "##\u3067": 12236, "Simon": 12237, "tempo": 12238, "finale": 12239, "kom": 12240, "famili": 12241, "When": 12242, "INSEE": 12243, "##\u00e8re": 12244, "etter": 12245, "##zioni": 12246, "\u0a35\u0a3f\u0a71\u0a1a": 12247, "##burg": 12248, "rock": 12249, "side": 12250, "hadde": 12251, "\u0433\u0434\u0435": 12252, "play": 12253, "present": 12254, "1901": 12255, "63": 12256, "##ah": 12257, "terletak": 12258, "\u0421\u0421\u0421\u0420": 12259, "partie": 12260, "sy": 12261, "VI": 12262, "PMID": 12263, "Brasil": 12264,
[...]
